{
  "version": "1.0",
  "truncation": null,
  "padding": null,
  "added_tokens": [
    {
      "id": 0,
      "content": "[PAD]",
      "single_word": false,
      "lstrip": false,
      "rstrip": false,
      "normalized": false,
      "special": true
    },
    {
      "id": 1,
      "content": "[UNK]",
      "single_word": false,
      "lstrip": false,
      "rstrip": false,
      "normalized": false,
      "special": true
    },
    {
      "id": 2,
      "content": "[CLS]",
      "single_word": false,
      "lstrip": false,
      "rstrip": false,
      "normalized": false,
      "special": true
    },
    {
      "id": 3,
      "content": "[SEP]",
      "single_word": false,
      "lstrip": false,
      "rstrip": false,
      "normalized": false,
      "special": true
    },
    {
      "id": 4,
      "content": "[MASK]",
      "single_word": false,
      "lstrip": false,
      "rstrip": false,
      "normalized": false,
      "special": true
    }
  ],
  "normalizer": null,
  "pre_tokenizer": {
    "type": "Whitespace"
  },
  "post_processor": null,
  "decoder": null,
  "model": {
    "type": "BPE",
    "dropout": null,
    "unk_token": null,
    "continuing_subword_prefix": null,
    "end_of_word_suffix": null,
    "fuse_unk": false,
    "vocab": {
      "[PAD]": 0,
      "[UNK]": 1,
      "[CLS]": 2,
      "[SEP]": 3,
      "[MASK]": 4,
      "!": 5,
      "$": 6,
      "&": 7,
      "'": 8,
      ",": 9,
      "-": 10,
      ".": 11,
      "3": 12,
      ":": 13,
      ";": 14,
      "?": 15,
      "A": 16,
      "B": 17,
      "C": 18,
      "D": 19,
      "E": 20,
      "F": 21,
      "G": 22,
      "H": 23,
      "I": 24,
      "J": 25,
      "K": 26,
      "L": 27,
      "M": 28,
      "N": 29,
      "O": 30,
      "P": 31,
      "Q": 32,
      "R": 33,
      "S": 34,
      "T": 35,
      "U": 36,
      "V": 37,
      "W": 38,
      "X": 39,
      "Y": 40,
      "Z": 41,
      "a": 42,
      "b": 43,
      "c": 44,
      "d": 45,
      "e": 46,
      "f": 47,
      "g": 48,
      "h": 49,
      "i": 50,
      "j": 51,
      "k": 52,
      "l": 53,
      "m": 54,
      "n": 55,
      "o": 56,
      "p": 57,
      "q": 58,
      "r": 59,
      "s": 60,
      "t": 61,
      "u": 62,
      "v": 63,
      "w": 64,
      "x": 65,
      "y": 66,
      "z": 67,
      "th": 68,
      "ou": 69,
      "er": 70,
      "in": 71,
      "an": 72,
      "the": 73,
      "or": 74,
      "is": 75,
      "en": 76,
      "ar": 77,
      "at": 78,
      "on": 79,
      "st": 80,
      "ll": 81,
      "me": 82,
      "to": 83,
      "and": 84,
      "he": 85,
      "you": 86,
      "es": 87,
      "no": 88,
      "se": 89,
      "ha": 90,
      "re": 91,
      "of": 92,
      "ve": 93,
      "it": 94,
      "ing": 95,
      "be": 96,
      "le": 97,
      "wi": 98,
      "my": 99,
      "hi": 100,
      "ow": 101,
      "ce": 102,
      "for": 103,
      "ay": 104,
      "as": 105,
      "ch": 106,
      "nd": 107,
      "ere": 108,
      "ld": 109,
      "ir": 110,
      "ed": 111,
      "ut": 112,
      "ro": 113,
      "not": 114,
      "li": 115,
      "de": 116,
      "we": 117,
      "hat": 118,
      "that": 119,
      "gh": 120,
      "And": 121,
      "ke": 122,
      "oo": 123,
      "our": 124,
      "with": 125,
      "ome": 126,
      "ent": 127,
      "his": 128,
      "ri": 129,
      "your": 130,
      "thou": 131,
      "ther": 132,
      "ad": 133,
      "al": 134,
      "et": 135,
      "all": 136,
      "ght": 137,
      "EN": 138,
      "ur": 139,
      "us": 140,
      "have": 141,
      "him": 142,
      "IN": 143,
      "ly": 144,
      "so": 145,
      "ra": 146,
      "this": 147,
      "IO": 148,
      "ord": 149,
      "do": 150,
      "un": 151,
      "ho": 152,
      "ma": 153,
      "ess": 154,
      "pe": 155,
      "fe": 156,
      "AR": 157,
      "ould": 158,
      "are": 159,
      "lo": 160,
      "here": 161,
      "ood": 162,
      "id": 163,
      "thy": 164,
      "ver": 165,
      "fa": 166,
      "ck": 167,
      "one": 168,
      "man": 169,
      "ti": 170,
      "The": 171,
      "sha": 172,
      "now": 173,
      "am": 174,
      "will": 175,
      "ne": 176,
      "ge": 177,
      "ain": 178,
      "but": 179,
      "su": 180,
      "ard": 181,
      "her": 182,
      "US": 183,
      "ter": 184,
      "con": 185,
      "pr": 186,
      "Th": 187,
      "To": 188,
      "end": 189,
      "by": 190,
      "thee": 191,
      "ue": 192,
      "om": 193,
      "la": 194,
      "shall": 195,
      "art": 196,
      "mor": 197,
      "up": 198,
      "UC": 199,
      "sh": 200,
      "come": 201,
      "po": 202,
      "ING": 203,
      "rom": 204,
      "own": 205,
      "AN": 206,
      "ust": 207,
      "That": 208,
      "ta": 209,
      "tr": 210,
      "what": 211,
      "ER": 212,
      "OR": 213,
      "ous": 214,
      "mo": 215,
      "sel": 216,
      "ET": 217,
      "te": 218,
      "ES": 219,
      "go": 220,
      "good": 221,
      "if": 222,
      "ill": 223,
      "But": 224,
      "ine": 225,
      "ath": 226,
      "hen": 227,
      "ble": 228,
      "ight": 229,
      "lord": 230,
      "ion": 231,
      "hich": 232,
      "king": 233,
      "What": 234,
      "was": 235,
      "bo": 236,
      "il": 237,
      "ant": 238,
      "KING": 239,
      "ven": 240,
      "she": 241,
      "ca": 242,
      "ul": 243,
      "from": 244,
      "bl": 245,
      "ong": 246,
      "more": 247,
      "For": 248,
      "well": 249,
      "sa": 250,
      "them": 251,
      "IC": 252,
      "ak": 253,
      "sir": 254,
      "self": 255,
      "ind": 256,
      "would": 257,
      "there": 258,
      "wor": 259,
      "love": 260,
      "can": 261,
      "know": 262,
      "per": 263,
      "ct": 264,
      "out": 265,
      "ive": 266,
      "EL": 267,
      "ate": 268,
      "com": 269,
      "say": 270,
      "then": 271,
      "see": 272,
      "IUS": 273,
      "let": 274,
      "ARD": 275,
      "their": 276,
      "My": 277,
      "di": 278,
      "than": 279,
      "ci": 280,
      "ry": 281,
      "--": 282,
      "they": 283,
      "fore": 284,
      "ence": 285,
      "ag": 286,
      "ep": 287,
      "ear": 288,
      "like": 289,
      "spe": 290,
      "Go": 291,
      "ers": 292,
      "hy": 293,
      "may": 294,
      "LO": 295,
      "bro": 296,
      "um": 297,
      "were": 298,
      "way": 299,
      "As": 300,
      "pro": 301,
      "ast": 302,
      "We": 303,
      "ves": 304,
      "ish": 305,
      "ink": 306,
      "KE": 307,
      "time": 308,
      "hath": 309,
      "II": 310,
      "qu": 311,
      "No": 312,
      "ure": 313,
      "irst": 314,
      "He": 315,
      "make": 316,
      "ol": 317,
      "ple": 318,
      "You": 319,
      "who": 320,
      "thing": 321,
      "row": 322,
      "must": 323,
      "gra": 324,
      "ound": 325,
      "ith": 326,
      "ap": 327,
      "ave": 328,
      "some": 329,
      "ook": 330,
      "should": 331,
      "OL": 332,
      "father": 333,
      "fi": 334,
      "LA": 335,
      "RO": 336,
      "TIO": 337,
      "use": 338,
      "ity": 339,
      "too": 340,
      "had": 341,
      "upon": 342,
      "son": 343,
      "did": 344,
      "CA": 345,
      "day": 346,
      "ig": 347,
      "ance": 348,
      "ward": 349,
      "ON": 350,
      "dis": 351,
      "how": 352,
      "wo": 353,
      "which": 354,
      "death": 355,
      "oun": 356,
      "reat": 357,
      "IS": 358,
      "word": 359,
      "fri": 360,
      "If": 361,
      "sp": 362,
      "when": 363,
      "est": 364,
      "men": 365,
      "speak": 366,
      "entle": 367,
      "In": 368,
      "heart": 369,
      "ICH": 370,
      "again": 371,
      "RICH": 372,
      "ful": 373,
      "vi": 374,
      "DU": 375,
      "DUKE": 376,
      "hand": 377,
      "yet": 378,
      "old": 379,
      "mar": 380,
      "el": 381,
      "Thou": 382,
      "UL": 383,
      "mine": 384,
      "very": 385,
      "think": 386,
      "RICHARD": 387,
      "ENTIO": 388,
      "take": 389,
      "Which": 390,
      "pl": 391,
      "si": 392,
      "swe": 393,
      "ac": 394,
      "God": 395,
      "hear": 396,
      "Be": 397,
      "With": 398,
      "ince": 399,
      "INC": 400,
      "str": 401,
      "ign": 402,
      "Why": 403,
      "give": 404,
      "Of": 405,
      "na": 406,
      "such": 407,
      "First": 408,
      "land": 409,
      "ang": 410,
      "AB": 411,
      "ness": 412,
      "uch": 413,
      "most": 414,
      "blood": 415,
      "des": 416,
      "ex": 417,
      "ster": 418,
      "brother": 419,
      "br": 420,
      "these": 421,
      "hea": 422,
      "tell": 423,
      "tis": 424,
      "any": 425,
      "ba": 426,
      "ey": 427,
      "UE": 428,
      "ise": 429,
      "onour": 430,
      "bre": 431,
      "other": 432,
      "im": 433,
      "where": 434,
      "How": 435,
      "que": 436,
      "llow": 437,
      "Come": 438,
      "less": 439,
      "ty": 440,
      "arm": 441,
      "life": 442,
      "This": 443,
      "TER": 444,
      "coun": 445,
      "look": 446,
      "new": 447,
      "So": 448,
      "ort": 449,
      "UCH": 450,
      "Who": 451,
      "friend": 452,
      "gentle": 453,
      "oul": 454,
      "GLO": 455,
      "ught": 456,
      "vo": 457,
      "UCES": 458,
      "GLOUCES": 459,
      "GLOUCESTER": 460,
      "chi": 461,
      "ars": 462,
      "af": 463,
      "mis": 464,
      "ving": 465,
      "hast": 466,
      "ady": 467,
      "Lord": 468,
      "ab": 469,
      "urse": 470,
      "ts": 471,
      "Rome": 472,
      "RY": 473,
      "night": 474,
      "rown": 475,
      "off": 476,
      "fair": 477,
      "made": 478,
      "age": 479,
      "LE": 480,
      "QUE": 481,
      "VINC": 482,
      "QUEEN": 483,
      "VINCENTIO": 484,
      "honour": 485,
      "OF": 486,
      "Se": 487,
      "much": 488,
      "ans": 489,
      "tion": 490,
      "ond": 491,
      "Is": 492,
      "Where": 493,
      "lie": 494,
      "urn": 495,
      "UM": 496,
      "LAN": 497,
      "stand": 498,
      "Mar": 499,
      "pre": 500,
      "HEN": 501,
      "cond": 502,
      "Now": 503,
      "che": 504,
      "name": 505,
      "tle": 506,
      "em": 507,
      "ef": 508,
      "HENRY": 509,
      "ng": 510,
      "ber": 511,
      "part": 512,
      "never": 513,
      "fear": 514,
      "io": 515,
      "Your": 516,
      "ces": 517,
      "ies": 518,
      "lt": 519,
      "live": 520,
      "ower": 521,
      "jo": 522,
      "ser": 523,
      "uke": 524,
      "It": 525,
      "call": 526,
      "great": 527,
      "ass": 528,
      "YOR": 529,
      "fo": 530,
      "head": 531,
      "YORK": 532,
      "ree": 533,
      "ment": 534,
      "und": 535,
      "Or": 536,
      "ation": 537,
      "INIUS": 538,
      "ever": 539,
      "pray": 540,
      "cannot": 541,
      "red": 542,
      "true": 543,
      "heaven": 544,
      "PET": 545,
      "ase": 546,
      "noble": 547,
      "fl": 548,
      "pa": 549,
      "been": 550,
      "sweet": 551,
      "fort": 552,
      "An": 553,
      "DW": 554,
      "EDW": 555,
      "co": 556,
      "EDWARD": 557,
      "GR": 558,
      "done": 559,
      "mer": 560,
      "bet": 561,
      ",--": 562,
      "TH": 563,
      "doth": 564,
      "iz": 565,
      "nor": 566,
      "ough": 567,
      "LUC": 568,
      "MEN": 569,
      "pt": 570,
      "res": 571,
      "Ay": 572,
      "da": 573,
      "pp": 574,
      "ull": 575,
      "war": 576,
      "ouse": 577,
      "There": 578,
      "ie": 579,
      "comm": 580,
      "gr": 581,
      "int": 582,
      "When": 583,
      "rest": 584,
      "Ed": 585,
      "wr": 586,
      "bear": 587,
      "ME": 588,
      "UT": 589,
      "grace": 590,
      "soul": 591,
      "before": 592,
      "ROME": 593,
      "Edward": 594,
      "ROMEO": 595,
      "By": 596,
      "sc": 597,
      "ss": 598,
      "ENIUS": 599,
      "both": 600,
      "world": 601,
      "MENENIUS": 602,
      "Ri": 603,
      "queen": 604,
      "ace": 605,
      "Here": 606,
      "Let": 607,
      "Then": 608,
      "comes": 609,
      "ughter": 610,
      "RUCH": 611,
      "down": 612,
      "pri": 613,
      "orn": 614,
      "dead": 615,
      "PETRUCH": 616,
      "PETRUCHIO": 617,
      "OM": 618,
      "ings": 619,
      "TES": 620,
      "long": 621,
      "ved": 622,
      "ite": 623,
      "pres": 624,
      "ake": 625,
      "ice": 626,
      "being": 627,
      "wick": 628,
      "Than": 629,
      "ru": 630,
      "leave": 631,
      "myself": 632,
      "hold": 633,
      "mother": 634,
      "Cl": 635,
      "HA": 636,
      "MAR": 637,
      "ore": 638,
      "set": 639,
      "cour": 640,
      "house": 641,
      "put": 642,
      "thus": 643,
      "cause": 644,
      "COR": 645,
      "IZ": 646,
      "op": 647,
      "ret": 648,
      "IOLAN": 649,
      "CORIOLAN": 650,
      "CORIOLANUS": 651,
      "Nor": 652,
      "tri": 653,
      "wife": 654,
      "Second": 655,
      "der": 656,
      "uck": 657,
      "whi": 658,
      "beg": 659,
      "eyes": 660,
      "deed": 661,
      "thought": 662,
      "BA": 663,
      "cl": 664,
      "Rich": 665,
      "dy": 666,
      "child": 667,
      "INA": 668,
      "poor": 669,
      "Do": 670,
      "She": 671,
      "itiz": 672,
      "die": 673,
      "itizen": 674,
      "foo": 675,
      "tra": 676,
      "led": 677,
      "away": 678,
      "IV": 679,
      "right": 680,
      "friends": 681,
      "ds": 682,
      "III": 683,
      "Sir": 684,
      "might": 685,
      "crown": 686,
      "ks": 687,
      "pla": 688,
      "atch": 689,
      "atter": 690,
      "stay": 691,
      "light": 692,
      "bid": 693,
      "ten": 694,
      "many": 695,
      "War": 696,
      "ft": 697,
      "ins": 698,
      "Warwick": 699,
      "ach": 700,
      "gri": 701,
      "lit": 702,
      "His": 703,
      "tre": 704,
      "Tis": 705,
      "ps": 706,
      "ison": 707,
      "pose": 708,
      "ELLA": 709,
      "cious": 710,
      "ISAB": 711,
      "ISABELLA": 712,
      "mi": 713,
      "ange": 714,
      "nothing": 715,
      "Romeo": 716,
      "daughter": 717,
      "RAN": 718,
      "bra": 719,
      "gone": 720,
      "kind": 721,
      "tal": 722,
      "tong": 723,
      "face": 724,
      "Well": 725,
      "mad": 726,
      "better": 727,
      "IET": 728,
      "JUL": 729,
      "kes": 730,
      "ose": 731,
      "par": 732,
      "ford": 733,
      "till": 734,
      "ONTES": 735,
      "LEONTES": 736,
      "JULIET": 737,
      "Nay": 738,
      "VI": 739,
      "gu": 740,
      "eng": 741,
      "though": 742,
      "prince": 743,
      "words": 744,
      "IL": 745,
      "ted": 746,
      "DY": 747,
      "able": 748,
      "ors": 749,
      "une": 750,
      "ears": 751,
      "LADY": 752,
      "CE": 753,
      "ST": 754,
      "VOL": 755,
      "wer": 756,
      "ENCE": 757,
      "show": 758,
      "BR": 759,
      "TA": 760,
      "ban": 761,
      "ither": 762,
      "tend": 763,
      "news": 764,
      "CL": 765,
      "Citizen": 766,
      "Ser": 767,
      "ic": 768,
      "sent": 769,
      "best": 770,
      "urder": 771,
      "against": 772,
      "Pro": 773,
      "those": 774,
      "joy": 775,
      "SIC": 776,
      "band": 777,
      "hour": 778,
      "sle": 779,
      "hence": 780,
      "lords": 781,
      "little": 782,
      "SICINIUS": 783,
      "far": 784,
      "tent": 785,
      "Sha": 786,
      "cy": 787,
      "ction": 788,
      "ardon": 789,
      "Un": 790,
      "pur": 791,
      "keep": 792,
      "tain": 793,
      "two": 794,
      "still": 795,
      "hel": 796,
      "char": 797,
      "dear": 798,
      "law": 799,
      "GRE": 800,
      "den": 801,
      "power": 802,
      "mean": 803,
      "forth": 804,
      "roy": 805,
      "himself": 806,
      "Not": 807,
      "full": 808,
      "Thy": 809,
      "back": 810,
      "LUCIO": 811,
      "its": 812,
      "unto": 813,
      "sub": 814,
      "Richard": 815,
      "Have": 816,
      "ech": 817,
      "peace": 818,
      "therefore": 819,
      "Will": 820,
      "bes": 821,
      "first": 822,
      "ren": 823,
      "iness": 824,
      "else": 825,
      "tongue": 826,
      "Yor": 827,
      "could": 828,
      "duke": 829,
      "high": 830,
      "ason": 831,
      "ried": 832,
      "hope": 833,
      "cut": 834,
      "hus": 835,
      "ought": 836,
      "ark": 837,
      "need": 838,
      "conf": 839,
      "find": 840,
      "lady": 841,
      "nat": 842,
      "thine": 843,
      "young": 844,
      "ETH": 845,
      "ELIZ": 846,
      "earth": 847,
      "ABETH": 848,
      "under": 849,
      "York": 850,
      "ELIZABETH": 851,
      "Good": 852,
      "cha": 853,
      "dre": 854,
      "thr": 855,
      "came": 856,
      "IAN": 857,
      "get": 858,
      "home": 859,
      "je": 860,
      "just": 861,
      "mind": 862,
      "ople": 863,
      "ran": 864,
      "master": 865,
      "Hen": 866,
      "Yet": 867,
      "once": 868,
      "people": 869,
      "husband": 870,
      "Henry": 871,
      "IA": 872,
      "pass": 873,
      "arewell": 874,
      "seem": 875,
      "place": 876,
      "PER": 877,
      "lay": 878,
      "sor": 879,
      "happ": 880,
      "qui": 881,
      "after": 882,
      "All": 883,
      "WAR": 884,
      "WIC": 885,
      "cle": 886,
      "fall": 887,
      "ste": 888,
      "Shall": 889,
      "WARWIC": 890,
      "WARWICK": 891,
      "vant": 892,
      "why": 893,
      "ister": 894,
      "bed": 895,
      "wel": 896,
      "fellow": 897,
      "follow": 898,
      "Nurse": 899,
      "last": 900,
      "none": 901,
      "They": 902,
      "please": 903,
      "HAM": 904,
      "PUL": 905,
      "dr": 906,
      "gi": 907,
      "hor": 908,
      "pardon": 909,
      "rep": 910,
      "hither": 911,
      "morrow": 912,
      "tru": 913,
      "said": 914,
      "CAPUL": 915,
      "CAPULET": 916,
      "bu": 917,
      "dou": 918,
      "every": 919,
      "gl": 920,
      "oud": 921,
      "hands": 922,
      "bring": 923,
      "MIO": 924,
      "gue": 925,
      "kill": 926,
      "pat": 927,
      "ousin": 928,
      "boy": 929,
      "woman": 930,
      "shi": 931,
      "shame": 932,
      "try": 933,
      "BUC": 934,
      "cent": 935,
      "mber": 936,
      "heard": 937,
      "tem": 938,
      "KINGHAM": 939,
      "UTUS": 940,
      "BRUTUS": 941,
      "BUCKINGHAM": 942,
      "BOL": 943,
      "BRO": 944,
      "From": 945,
      "TRAN": 946,
      "bus": 947,
      "clo": 948,
      "dra": 949,
      "ff": 950,
      "ius": 951,
      "jest": 952,
      "ates": 953,
      "INGBRO": 954,
      "ESS": 955,
      "LAU": 956,
      "BOLINGBRO": 957,
      "TRANIO": 958,
      "BOLINGBROKE": 959,
      "MIL": 960,
      "car": 961,
      "sand": 962,
      "uty": 963,
      "tears": 964,
      "whose": 965,
      "vost": 966,
      "present": 967,
      "Our": 968,
      "TIS": 969,
      "bri": 970,
      "ken": 971,
      "vy": 972,
      "maid": 973,
      "comp": 974,
      "royal": 975,
      "cer": 976,
      "cur": 977,
      "cess": 978,
      "sen": 979,
      "since": 980,
      "wit": 981,
      "state": 982,
      "lack": 983,
      "wrong": 984,
      "GAR": 985,
      "King": 986,
      "NE": 987,
      "fal": 988,
      "gar": 989,
      "meet": 990,
      "MARGAR": 991,
      "sorrow": 992,
      "MARGARET": 993,
      "ATH": 994,
      "gain": 995,
      "sun": 996,
      "prison": 997,
      "eye": 998,
      "On": 999,
      "vir": 1000,
      "whom": 1001,
      "CAL": 1002,
      "while": 1003,
      "help": 1004,
      "Bo": 1005,
      "GEL": 1006,
      "HOR": 1007,
      "gen": 1008,
      "les": 1009,
      "ning": 1010,
      "pi": 1011,
      "ting": 1012,
      "vere": 1013,
      "xt": 1014,
      "reme": 1015,
      "ition": 1016,
      "thousand": 1017,
      "ANGEL": 1018,
      "tress": 1019,
      "ORD": 1020,
      "selves": 1021,
      "gracious": 1022,
      "about": 1023,
      "answer": 1024,
      "Clar": 1025,
      "ANGELO": 1026,
      "CU": 1027,
      "Eng": 1028,
      "gre": 1029,
      "vil": 1030,
      "iss": 1031,
      "lies": 1032,
      "weep": 1033,
      "ARINA": 1034,
      "fool": 1035,
      "Clarence": 1036,
      "KATH": 1037,
      "mon": 1038,
      "wn": 1039,
      "ceive": 1040,
      "cius": 1041,
      "KATHARINA": 1042,
      "St": 1043,
      "over": 1044,
      "into": 1045,
      "vice": 1046,
      "gentleman": 1047,
      "Marcius": 1048,
      "cousin": 1049,
      "ged": 1050,
      "pet": 1051,
      "stri": 1052,
      "asure": 1053,
      "body": 1054,
      "Up": 1055,
      "turn": 1056,
      "ory": 1057,
      "sed": 1058,
      "ready": 1059,
      "form": 1060,
      "hate": 1061,
      "makes": 1062,
      "ESCAL": 1063,
      "spir": 1064,
      "grief": 1065,
      "ESCALUS": 1066,
      "Her": 1067,
      "Pr": 1068,
      "bt": 1069,
      "eld": 1070,
      "ud": 1071,
      "content": 1072,
      "anger": 1073,
      "ject": 1074,
      "Hath": 1075,
      "dost": 1076,
      "broke": 1077,
      "prove": 1078,
      "fortune": 1079,
      "AU": 1080,
      "DUCH": 1081,
      "Duke": 1082,
      "cra": 1083,
      "dow": 1084,
      "sl": 1085,
      "vill": 1086,
      "ery": 1087,
      "ary": 1088,
      "wilt": 1089,
      "DUCHESS": 1090,
      "pher": 1091,
      "rant": 1092,
      "itor": 1093,
      "unt": 1094,
      "pos": 1095,
      "ROS": 1096,
      "play": 1097,
      "Ange": 1098,
      "sleep": 1099,
      "kne": 1100,
      "sound": 1101,
      "anca": 1102,
      "faul": 1103,
      "thank": 1104,
      "times": 1105,
      "swear": 1106,
      "arms": 1107,
      "urderer": 1108,
      "Angelo": 1109,
      "eech": 1110,
      "ost": 1111,
      "wa": 1112,
      "indeed": 1113,
      "another": 1114,
      "ised": 1115,
      "grave": 1116,
      "CAMIL": 1117,
      "acc": 1118,
      "false": 1119,
      "CAMILLO": 1120,
      "Even": 1121,
      "Would": 1122,
      "bal": 1123,
      "even": 1124,
      "matter": 1125,
      "has": 1126,
      "comfort": 1127,
      "talk": 1128,
      "Provost": 1129,
      "happy": 1130,
      "pati": 1131,
      "Ty": 1132,
      "TEN": 1133,
      "fight": 1134,
      "med": 1135,
      "reason": 1136,
      "aint": 1137,
      "sure": 1138,
      "HORTEN": 1139,
      "vereign": 1140,
      "HORTENS": 1141,
      "FR": 1142,
      "IAR": 1143,
      "cor": 1144,
      "vent": 1145,
      "ouch": 1146,
      "only": 1147,
      "stra": 1148,
      "offi": 1149,
      "sovereign": 1150,
      "country": 1151,
      "banish": 1152,
      "Upon": 1153,
      "HORTENSIO": 1154,
      "FRIAR": 1155,
      ",'": 1156,
      "Are": 1157,
      "PTIS": 1158,
      "Thi": 1159,
      "care": 1160,
      "min": 1161,
      "send": 1162,
      "va": 1163,
      "wish": 1164,
      "years": 1165,
      "rather": 1166,
      "lieve": 1167,
      "BAPTIS": 1168,
      "truth": 1169,
      "virt": 1170,
      "BAPTISTA": 1171,
      "AUT": 1172,
      "CUS": 1173,
      "COM": 1174,
      "More": 1175,
      "YCUS": 1176,
      "bit": 1177,
      "ire": 1178,
      "sla": 1179,
      "reven": 1180,
      "onest": 1181,
      "got": 1182,
      "OLYCUS": 1183,
      "business": 1184,
      "AUTOLYCUS": 1185,
      "COMINIUS": 1186,
      ".'": 1187,
      "At": 1188,
      "EY": 1189,
      "hang": 1190,
      "ious": 1191,
      "rd": 1192,
      "spo": 1193,
      "wom": 1194,
      "want": 1195,
      "ene": 1196,
      "ARENCE": 1197,
      "shalt": 1198,
      "deser": 1199,
      "CLARENCE": 1200,
      "Third": 1201,
      "wind": 1202,
      "ye": 1203,
      "arn": 1204,
      "sea": 1205,
      "ury": 1206,
      "breath": 1207,
      "ield": 1208,
      "command": 1209,
      "dream": 1210,
      "pherd": 1211,
      "BEN": 1212,
      "Gentle": 1213,
      "NOR": 1214,
      "Sh": 1215,
      "Take": 1216,
      "prom": 1217,
      "three": 1218,
      "holy": 1219,
      "fect": 1220,
      "lau": 1221,
      "common": 1222,
      "Clown": 1223,
      "VOLIO": 1224,
      "BENVOLIO": 1225,
      "MER": 1226,
      "PA": 1227,
      "PROS": 1228,
      "Te": 1229,
      "igh": 1230,
      "pity": 1231,
      "tw": 1232,
      "enough": 1233,
      "sold": 1234,
      "UMIO": 1235,
      "GRUMIO": 1236,
      "PERO": 1237,
      "welcome": 1238,
      "horse": 1239,
      "doubt": 1240,
      "PROSPERO": 1241,
      "Kate": 1242,
      "Murderer": 1243,
      "air": 1244,
      "hum": 1245,
      "ator": 1246,
      "read": 1247,
      "bea": 1248,
      "lives": 1249,
      "pect": 1250,
      "CUTIO": 1251,
      "villain": 1252,
      "MERCUTIO": 1253,
      "Ju": 1254,
      "Li": 1255,
      "Were": 1256,
      "born": 1257,
      "free": 1258,
      "kiss": 1259,
      "late": 1260,
      "anta": 1261,
      "ask": 1262,
      "within": 1263,
      "gods": 1264,
      "worn": 1265,
      "LUCENTIO": 1266,
      "madam": 1267,
      "Servant": 1268,
      "nature": 1269,
      "Al": 1270,
      "POM": 1271,
      "cre": 1272,
      "city": 1273,
      "sister": 1274,
      "force": 1275,
      "ours": 1276,
      "things": 1277,
      "quest": 1278,
      "mistress": 1279,
      "LAND": 1280,
      "POMP": 1281,
      "Give": 1282,
      "Ro": 1283,
      "Was": 1284,
      "foul": 1285,
      "oath": 1286,
      "wound": 1287,
      "yield": 1288,
      "means": 1289,
      "ents": 1290,
      "enter": 1291,
      "proud": 1292,
      "saw": 1293,
      "fire": 1294,
      "ULINA": 1295,
      "subject": 1296,
      "beseech": 1297,
      "PAULINA": 1298,
      "Con": 1299,
      "Say": 1300,
      "ms": 1301,
      "seen": 1302,
      "rel": 1303,
      "oft": 1304,
      "deli": 1305,
      "yours": 1306,
      "faith": 1307,
      "gether": 1308,
      "appe": 1309,
      "onder": 1310,
      "GREMIO": 1311,
      "gainst": 1312,
      "POMPEY": 1313,
      "IX": 1314,
      "Look": 1315,
      "NIA": 1316,
      "POL": 1317,
      "cla": 1318,
      "gro": 1319,
      "honest": 1320,
      "ier": 1321,
      "pain": 1322,
      "sm": 1323,
      "win": 1324,
      "dem": 1325,
      "yourself": 1326,
      "ENES": 1327,
      "vers": 1328,
      "ANT": 1329,
      "trust": 1330,
      "bles": 1331,
      "plain": 1332,
      "bloody": 1333,
      "looks": 1334,
      "UMNIA": 1335,
      "court": 1336,
      "VOLUMNIA": 1337,
      "gener": 1338,
      "England": 1339,
      "Tybal": 1340,
      "IXENES": 1341,
      "POLIXENES": 1342,
      "BER": 1343,
      "GON": 1344,
      "Some": 1345,
      "ior": 1346,
      "vis": 1347,
      "beat": 1348,
      "uncle": 1349,
      "INGS": 1350,
      "break": 1351,
      "vingman": 1352,
      "haste": 1353,
      "HAST": 1354,
      "traitor": 1355,
      "enger": 1356,
      "Servingman": 1357,
      "ship": 1358,
      "centio": 1359,
      "Tybalt": 1360,
      "HASTINGS": 1361,
      "Can": 1362,
      "Did": 1363,
      "Hast": 1364,
      "May": 1365,
      "RENCE": 1366,
      "bat": 1367,
      "sin": 1368,
      "sit": 1369,
      "together": 1370,
      "hal": 1371,
      "change": 1372,
      "unes": 1373,
      "majest": 1374,
      "point": 1375,
      "person": 1376,
      "days": 1377,
      "thinks": 1378,
      "children": 1379,
      "tender": 1380,
      "LAURENCE": 1381,
      "Ah": 1382,
      "BY": 1383,
      "Pet": 1384,
      "danger": 1385,
      "ga": 1386,
      "lam": 1387,
      "sight": 1388,
      "sword": 1389,
      "wis": 1390,
      "wat": 1391,
      "told": 1392,
      "left": 1393,
      "ows": 1394,
      "wear": 1395,
      "adv": 1396,
      "cks": 1397,
      "woe": 1398,
      "mercy": 1399,
      "warrant": 1400,
      "Therefore": 1401,
      "foot": 1402,
      "Juli": 1403,
      "majesty": 1404,
      "FF": 1405,
      "IFF": 1406,
      "farewell": 1407,
      "ling": 1408,
      "ze": 1409,
      "ones": 1410,
      "ute": 1411,
      "lif": 1412,
      "dest": 1413,
      "save": 1414,
      "UMBER": 1415,
      "THUMBER": 1416,
      "CLIFF": 1417,
      "report": 1418,
      "NORTHUMBER": 1419,
      "NORTHUMBERLAND": 1420,
      "ID": 1421,
      "Lu": 1422,
      "Mon": 1423,
      "cold": 1424,
      "rance": 1425,
      "sing": 1426,
      "sad": 1427,
      "ush": 1428,
      "does": 1429,
      "gold": 1430,
      "worthy": 1431,
      "known": 1432,
      "marry": 1433,
      "Though": 1434,
      "ches": 1435,
      "return": 1436,
      "justice": 1437,
      "draw": 1438,
      "Tell": 1439,
      "half": 1440,
      "Cor": 1441,
      "Com": 1442,
      "grow": 1443,
      "hard": 1444,
      "ner": 1445,
      "nurse": 1446,
      "run": 1447,
      "ist": 1448,
      "believe": 1449,
      "without": 1450,
      "soon": 1451,
      "sue": 1452,
      "ters": 1453,
      "ANNE": 1454,
      "heavy": 1455,
      "purpose": 1456,
      "through": 1457,
      "Clif": 1458,
      "Had": 1459,
      "Le": 1460,
      "PR": 1461,
      "Sign": 1462,
      "Whi": 1463,
      "athe": 1464,
      "fly": 1465,
      "ily": 1466,
      "sil": 1467,
      "heir": 1468,
      "lost": 1469,
      "pluck": 1470,
      "INCE": 1471,
      "strange": 1472,
      "Juliet": 1473,
      "PRINCE": 1474,
      "Bol": 1475,
      "Gre": 1476,
      "cry": 1477,
      "curse": 1478,
      "fit": 1479,
      "found": 1480,
      "obe": 1481,
      "pen": 1482,
      "past": 1483,
      "ingbroke": 1484,
      "bel": 1485,
      "ceed": 1486,
      "enty": 1487,
      "loss": 1488,
      "thyself": 1489,
      "near": 1490,
      "cons": 1491,
      "says": 1492,
      "liege": 1493,
      "charge": 1494,
      "spirit": 1495,
      "Clifford": 1496,
      "Signior": 1497,
      "Bolingbroke": 1498,
      "Away": 1499,
      "Cam": 1500,
      "Farewell": 1501,
      "Me": 1502,
      "One": 1503,
      "Re": 1504,
      "fet": 1505,
      "ide": 1506,
      "sworn": 1507,
      "tit": 1508,
      "tro": 1509,
      "wall": 1510,
      "outh": 1511,
      "hed": 1512,
      "ham": 1513,
      "dom": 1514,
      "strong": 1515,
      "Whose": 1516,
      "pair": 1517,
      "ground": 1518,
      "Should": 1519,
      "ALO": 1520,
      "Ca": 1521,
      "gs": 1522,
      "ices": 1523,
      "woo": 1524,
      "wise": 1525,
      "ina": 1526,
      "instr": 1527,
      "deep": 1528,
      "devil": 1529,
      "entreat": 1530,
      "fast": 1531,
      "bold": 1532,
      "aster": 1533,
      "used": 1534,
      "friar": 1535,
      "married": 1536,
      "service": 1537,
      "ength": 1538,
      "Pray": 1539,
      "claim": 1540,
      "Monta": 1541,
      "France": 1542,
      "Gl": 1543,
      "Sen": 1544,
      "ather": 1545,
      "dare": 1546,
      "ench": 1547,
      "toward": 1548,
      "def": 1549,
      "ides": 1550,
      "sup": 1551,
      "quar": 1552,
      "thoughts": 1553,
      "quick": 1554,
      "remember": 1555,
      "slain": 1556,
      "fault": 1557,
      "straight": 1558,
      "Like": 1559,
      "FL": 1560,
      "FID": 1561,
      "Jo": 1562,
      "Mess": 1563,
      "cr": 1564,
      "cal": 1565,
      "ecut": 1566,
      "fol": 1567,
      "ob": 1568,
      "ph": 1569,
      "touch": 1570,
      "ats": 1571,
      "learn": 1572,
      "choo": 1573,
      "alone": 1574,
      "lose": 1575,
      "These": 1576,
      "suit": 1577,
      "press": 1578,
      "ends": 1579,
      "ORIZ": 1580,
      "same": 1581,
      "worth": 1582,
      "loved": 1583,
      "mark": 1584,
      "course": 1585,
      "open": 1586,
      "AUFID": 1587,
      "enemy": 1588,
      "beauty": 1589,
      "general": 1590,
      "FLORIZ": 1591,
      "Messenger": 1592,
      "AUFIDIUS": 1593,
      "FLORIZEL": 1594,
      "Clau": 1595,
      "SE": 1596,
      "act": 1597,
      "bir": 1598,
      "bour": 1599,
      "cro": 1600,
      "fur": 1601,
      "ied": 1602,
      "widow": 1603,
      "ION": 1604,
      "prof": 1605,
      "dio": 1606,
      "side": 1607,
      "execut": 1608,
      "brought": 1609,
      "See": 1610,
      "grant": 1611,
      "hours": 1612,
      "revenge": 1613,
      "twenty": 1614,
      "Claudio": 1615,
      "!'": 1616,
      "Ha": 1617,
      "Mad": 1618,
      "bow": 1619,
      "duty": 1620,
      "jud": 1621,
      "ses": 1622,
      "youth": 1623,
      "rew": 1624,
      "itself": 1625,
      "rich": 1626,
      "som": 1627,
      "feel": 1628,
      "consu": 1629,
      "ERS": 1630,
      "move": 1631,
      "mock": 1632,
      "work": 1633,
      "canst": 1634,
      "knows": 1635,
      "speed": 1636,
      "umber": 1637,
      "confess": 1638,
      "Gentleman": 1639,
      "Senator": 1640,
      "Madam": 1641,
      "Against": 1642,
      "CIUS": 1643,
      "Cap": 1644,
      "De": 1645,
      "Master": 1646,
      "bs": 1647,
      "bound": 1648,
      "dam": 1649,
      "ped": 1650,
      "ua": 1651,
      "val": 1652,
      "ouce": 1653,
      "lead": 1654,
      "cho": 1655,
      "riage": 1656,
      "order": 1657,
      "illo": 1658,
      "ils": 1659,
      "sake": 1660,
      "pleasure": 1661,
      "field": 1662,
      "desire": 1663,
      "counter": 1664,
      "stands": 1665,
      "ched": 1666,
      "serve": 1667,
      "resol": 1668,
      "MARCIUS": 1669,
      "BAST": 1670,
      "Shepherd": 1671,
      "company": 1672,
      "women": 1673,
      "Montague": 1674,
      "Glouce": 1675,
      "SEBAST": 1676,
      "SEBASTIAN": 1677,
      "MON": 1678,
      "OW": 1679,
      "burn": 1680,
      "dish": 1681,
      "either": 1682,
      "ges": 1683,
      "harm": 1684,
      "mus": 1685,
      "murder": 1686,
      "met": 1687,
      "hes": 1688,
      "hell": 1689,
      "ingham": 1690,
      "behold": 1691,
      "chance": 1692,
      "fection": 1693,
      "Thus": 1694,
      "hearts": 1695,
      "counsel": 1696,
      "fearful": 1697,
      "Camillo": 1698,
      "Buck": 1699,
      "BION": 1700,
      "DEL": 1701,
      "Till": 1702,
      "Vol": 1703,
      "au": 1704,
      "dro": 1705,
      "each": 1706,
      "fer": 1707,
      "ici": 1708,
      "sat": 1709,
      "sur": 1710,
      "vour": 1711,
      "wret": 1712,
      "bell": 1713,
      "hot": 1714,
      "loving": 1715,
      "suc": 1716,
      "short": 1717,
      "tale": 1718,
      "test": 1719,
      "marriage": 1720,
      "strike": 1721,
      "Hastings": 1722,
      "Gloucester": 1723,
      "Buckingham": 1724,
      "BIONDEL": 1725,
      "BIONDELLO": 1726,
      "Au": 1727,
      "Ch": 1728,
      "cri": 1729,
      "du": 1730,
      "fid": 1731,
      "mit": 1732,
      "pie": 1733,
      "sign": 1734,
      "won": 1735,
      "wonder": 1736,
      "attend": 1737,
      "sto": 1738,
      "stu": 1739,
      "ash": 1740,
      "ween": 1741,
      "withal": 1742,
      "rah": 1743,
      "cast": 1744,
      "safe": 1745,
      "something": 1746,
      "sick": 1747,
      "voices": 1748,
      "miss": 1749,
      "pret": 1750,
      "Norfol": 1751,
      "guil": 1752,
      "highness": 1753,
      "given": 1754,
      "patience": 1755,
      "deliver": 1756,
      "Vols": 1757,
      "Norfolk": 1758,
      "AUM": 1759,
      "HER": 1760,
      "OP": 1761,
      "cred": 1762,
      "kn": 1763,
      "knew": 1764,
      "ls": 1765,
      "pit": 1766,
      "pra": 1767,
      "ring": 1768,
      "wast": 1769,
      "watch": 1770,
      "ined": 1771,
      "wixt": 1772,
      "alth": 1773,
      "ally": 1774,
      "loves": 1775,
      "suff": 1776,
      "ERLE": 1777,
      "coming": 1778,
      "Wel": 1779,
      "took": 1780,
      "didst": 1781,
      "ONIO": 1782,
      "strength": 1783,
      "gentlemen": 1784,
      "heavens": 1785,
      "flatter": 1786,
      "pale": 1787,
      "posed": 1788,
      "Roman": 1789,
      "ANTONIO": 1790,
      "Lucentio": 1791,
      "AUMERLE": 1792,
      "Bi": 1793,
      "Lanca": 1794,
      "Po": 1795,
      "ZALO": 1796,
      "aw": 1797,
      "bar": 1798,
      "ger": 1799,
      "hood": 1800,
      "lad": 1801,
      "ris": 1802,
      "thri": 1803,
      "enem": 1804,
      "stir": 1805,
      "become": 1806,
      "cept": 1807,
      "lips": 1808,
      "mortal": 1809,
      "post": 1810,
      "Marry": 1811,
      "brave": 1812,
      "tempt": 1813,
      "GONZALO": 1814,
      "Lancaster": 1815,
      "enemies": 1816,
      "Lo": 1817,
      "Lady": 1818,
      "Most": 1819,
      "Pom": 1820,
      "SA": 1821,
      "Ye": 1822,
      "abo": 1823,
      "bly": 1824,
      "book": 1825,
      "eper": 1826,
      "gates": 1827,
      "wed": 1828,
      "ished": 1829,
      "ons": 1830,
      "held": 1831,
      "ced": 1832,
      "hop": 1833,
      "next": 1834,
      "poss": 1835,
      "seek": 1836,
      "thanks": 1837,
      "cient": 1838,
      "prop": 1839,
      "breathe": 1840,
      "cover": 1841,
      "souls": 1842,
      "certain": 1843,
      "ceived": 1844,
      "water": 1845,
      "title": 1846,
      "suffer": 1847,
      "Bianca": 1848,
      "Bes": 1849,
      "CLAU": 1850,
      "DIO": 1851,
      "Pl": 1852,
      "Tran": 1853,
      "brow": 1854,
      "cure": 1855,
      "four": 1856,
      "gave": 1857,
      "mouth": 1858,
      "wh": 1859,
      "often": 1860,
      "rage": 1861,
      "main": 1862,
      "consent": 1863,
      "poison": 1864,
      "bosom": 1865,
      "themselves": 1866,
      "breast": 1867,
      "chee": 1868,
      "cheer": 1869,
      "join": 1870,
      "merry": 1871,
      "grie": 1872,
      "MIONE": 1873,
      "Alas": 1874,
      "Petru": 1875,
      "CLIFFORD": 1876,
      "HERMIONE": 1877,
      "CLAUDIO": 1878,
      "Call": 1879,
      "DA": 1880,
      "IRAN": 1881,
      "JO": 1882,
      "LORD": 1883,
      "Make": 1884,
      "MIRAN": 1885,
      "Per": 1886,
      "Since": 1887,
      "black": 1888,
      "bunes": 1889,
      "ding": 1890,
      "dden": 1891,
      "iers": 1892,
      "kno": 1893,
      "tin": 1894,
      "tor": 1895,
      "twas": 1896,
      "twere": 1897,
      "wd": 1898,
      "throw": 1899,
      "vel": 1900,
      "oward": 1901,
      "forget": 1902,
      "ered": 1903,
      "eds": 1904,
      "weak": 1905,
      "along": 1906,
      "ended": 1907,
      "worse": 1908,
      "div": 1909,
      "Being": 1910,
      "chio": 1911,
      "foe": 1912,
      "virtu": 1913,
      "virtue": 1914,
      "appear": 1915,
      "further": 1916,
      "Aufid": 1917,
      "Tranio": 1918,
      "Petruchio": 1919,
      "MIRANDA": 1920,
      "Aufidius": 1921,
      "HN": 1922,
      "Spe": 1923,
      "SON": 1924,
      "ade": 1925,
      "bad": 1926,
      "bur": 1927,
      "fir": 1928,
      "lst": 1929,
      "pare": 1930,
      "sk": 1931,
      "spr": 1932,
      "issue": 1933,
      "request": 1934,
      "liant": 1935,
      "liber": 1936,
      "already": 1937,
      "usur": 1938,
      "morning": 1939,
      "kings": 1940,
      "fles": 1941,
      "writ": 1942,
      "Hereford": 1943,
      "begin": 1944,
      "office": 1945,
      "battle": 1946,
      "dangerous": 1947,
      "satis": 1948,
      "JOHN": 1949,
      "Tower": 1950,
      "Yes": 1951,
      "aunt": 1952,
      "creat": 1953,
      "frown": 1954,
      "hind": 1955,
      "iol": 1956,
      "mond": 1957,
      "pay": 1958,
      "pal": 1959,
      "plo": 1960,
      "inter": 1961,
      "anus": 1962,
      "orge": 1963,
      "arry": 1964,
      "hip": 1965,
      "feast": 1966,
      "neither": 1967,
      "trou": 1968,
      "goes": 1969,
      "case": 1970,
      "bless": 1971,
      "thence": 1972,
      "dire": 1973,
      "ways": 1974,
      "sons": 1975,
      "Before": 1976,
      "servant": 1977,
      "between": 1978,
      "Richmond": 1979,
      "mile": 1980,
      "patient": 1981,
      "soldiers": 1982,
      "wounds": 1983,
      "Coriol": 1984,
      "quarrel": 1985,
      "Welcome": 1986,
      "possess": 1987,
      "Coriolanus": 1988,
      "AS": 1989,
      "Ar": 1990,
      "Must": 1991,
      "NT": 1992,
      "Pe": 1993,
      "Such": 1994,
      "bla": 1995,
      "cc": 1996,
      "fra": 1997,
      "fres": 1998,
      "mas": 1999,
      "od": 2000,
      "pite": 2001,
      "rup": 2002,
      "rough": 2003,
      "whe": 2004,
      "mes": 2005,
      "town": 2006,
      "having": 2007,
      "owers": 2008,
      "cell": 2009,
      "alk": 2010,
      "unk": 2011,
      "sum": 2012,
      "dies": 2013,
      "speech": 2014,
      "CATES": 2015,
      "vict": 2016,
      "sigh": 2017,
      "sible": 2018,
      "Because": 2019,
      "base": 2020,
      "voice": 2021,
      "offer": 2022,
      "Margar": 2023,
      "presence": 2024,
      "Unless": 2025,
      "dread": 2026,
      "bride": 2027,
      "brief": 2028,
      "spoke": 2029,
      "consul": 2030,
      "Speak": 2031,
      "CATESBY": 2032,
      "Margaret": 2033,
      "Bap": 2034,
      "Ke": 2035,
      "Lond": 2036,
      "Saint": 2037,
      "col": 2038,
      "dark": 2039,
      "fill": 2040,
      "hur": 2041,
      "rum": 2042,
      "ub": 2043,
      "vow": 2044,
      "wars": 2045,
      "arl": 2046,
      "aris": 2047,
      "ona": 2048,
      "llo": 2049,
      "forward": 2050,
      "lip": 2051,
      "Their": 2052,
      "vile": 2053,
      "action": 2054,
      "Whom": 2055,
      "heads": 2056,
      "scar": 2057,
      "deeds": 2058,
      "mighty": 2059,
      "GREY": 2060,
      "deny": 2061,
      "natur": 2062,
      "chamber": 2063,
      "throne": 2064,
      "seems": 2065,
      "close": 2066,
      "Both": 2067,
      "promise": 2068,
      "visit": 2069,
      "Baptis": 2070,
      "London": 2071,
      "BIAN": 2072,
      "Ere": 2073,
      "Ge": 2074,
      "Isa": 2075,
      "Lest": 2076,
      "Mer": 2077,
      "Mis": 2078,
      "Paris": 2079,
      "RIV": 2080,
      "Tr": 2081,
      "bury": 2082,
      "eth": 2083,
      "ging": 2084,
      "har": 2085,
      "ima": 2086,
      "mb": 2087,
      "swi": 2088,
      "sal": 2089,
      "soft": 2090,
      "ancient": 2091,
      "stain": 2092,
      "reg": 2093,
      "chang": 2094,
      "urch": 2095,
      "sol": 2096,
      "mast": 2097,
      "ided": 2098,
      "vern": 2099,
      "sudden": 2100,
      "moon": 2101,
      "ions": 2102,
      "wash": 2103,
      "worship": 2104,
      "umpet": 2105,
      "umph": 2106,
      "viol": 2107,
      "ments": 2108,
      "prayers": 2109,
      "respect": 2110,
      "BAL": 2111,
      "clou": 2112,
      "trem": 2113,
      "princely": 2114,
      "BRA": 2115,
      "fully": 2116,
      "buy": 2117,
      "bitter": 2118,
      "Baptista": 2119,
      "BIANCA": 2120,
      "George": 2121,
      "RIVERS": 2122,
      "BOW": 2123,
      "GAU": 2124,
      "Pa": 2125,
      "Tho": 2126,
      "ack": 2127,
      "coward": 2128,
      "ew": 2129,
      "eat": 2130,
      "eas": 2131,
      "gall": 2132,
      "ian": 2133,
      "uct": 2134,
      "seat": 2135,
      "rever": 2136,
      "hide": 2137,
      "favour": 2138,
      "oney": 2139,
      "til": 2140,
      "prin": 2141,
      "ELBOW": 2142,
      "ured": 2143,
      "pleas": 2144,
      "count": 2145,
      "orten": 2146,
      "scorn": 2147,
      "North": 2148,
      "triumph": 2149,
      "lawful": 2150,
      "presently": 2151,
      "witness": 2152,
      "Stand": 2153,
      "valiant": 2154,
      "slave": 2155,
      "antage": 2156,
      "lament": 2157,
      "fetch": 2158,
      "cross": 2159,
      "music": 2160,
      "success": 2161,
      "flesh": 2162,
      "GAUNT": 2163,
      "GUE": 2164,
      "Hold": 2165,
      "Hark": 2166,
      "Horten": 2167,
      "Ox": 2168,
      "TY": 2169,
      "aven": 2170,
      "boo": 2171,
      "ease": 2172,
      "fond": 2173,
      "ile": 2174,
      "ife": 2175,
      "ick": 2176,
      "kins": 2177,
      "nay": 2178,
      "occ": 2179,
      "port": 2180,
      "patch": 2181,
      "sper": 2182,
      "stant": 2183,
      "least": 2184,
      "almost": 2185,
      "willing": 2186,
      "gest": 2187,
      "moved": 2188,
      "appro": 2189,
      "sio": 2190,
      "prithee": 2191,
      "tribunes": 2192,
      "TAGUE": 2193,
      "quiet": 2194,
      "faults": 2195,
      "demn": 2196,
      "MONTAGUE": 2197,
      "Hortensio": 2198,
      "Kath": 2199,
      "aid": 2200,
      "bor": 2201,
      "cen": 2202,
      "dle": 2203,
      "gent": 2204,
      "ked": 2205,
      "lar": 2206,
      "low": 2207,
      "mid": 2208,
      "match": 2209,
      "tune": 2210,
      "warm": 2211,
      "thither": 2212,
      "arina": 2213,
      "stor": 2214,
      "hemi": 2215,
      "beast": 2216,
      "ley": 2217,
      "cher": 2218,
      "depart": 2219,
      "ooth": 2220,
      "mali": 2221,
      "pey": 2222,
      "feit": 2223,
      "tic": 2224,
      "god": 2225,
      "kingdom": 2226,
      "aked": 2227,
      "died": 2228,
      "cience": 2229,
      "fie": 2230,
      "fied": 2231,
      "bawd": 2232,
      "Doth": 2233,
      "brace": 2234,
      "Bohemi": 2235,
      "Stay": 2236,
      "slaughter": 2237,
      "subjects": 2238,
      "small": 2239,
      "defend": 2240,
      "execution": 2241,
      "umberland": 2242,
      "pretty": 2243,
      "Pompey": 2244,
      "Yea": 2245,
      "Peace": 2246,
      "Northumberland": 2247,
      "Oxford": 2248,
      "Katharina": 2249,
      "DI": 2250,
      "Ex": 2251,
      "GIL": 2252,
      "IEL": 2253,
      "RGIL": 2254,
      "Swe": 2255,
      "awhile": 2256,
      "sland": 2257,
      "vol": 2258,
      "year": 2259,
      "ines": 2260,
      "inno": 2261,
      "lect": 2262,
      "wild": 2263,
      "living": 2264,
      "rid": 2265,
      "trumpet": 2266,
      "ERD": 2267,
      "tear": 2268,
      "govern": 2269,
      "goodly": 2270,
      "perate": 2271,
      "proceed": 2272,
      "hadst": 2273,
      "whence": 2274,
      "hearing": 2275,
      "offence": 2276,
      "ledge": 2277,
      "mild": 2278,
      "VIRGIL": 2279,
      "guard": 2280,
      "wert": 2281,
      "PERDI": 2282,
      "drink": 2283,
      "glad": 2284,
      "greet": 2285,
      "soldier": 2286,
      "obedi": 2287,
      "quickly": 2288,
      "birth": 2289,
      "dishonour": 2290,
      "piece": 2291,
      "knock": 2292,
      "virtuous": 2293,
      "fresh": 2294,
      "Paul": 2295,
      "Bohemia": 2296,
      "Sweet": 2297,
      "VIRGILIA": 2298,
      "PERDITA": 2299,
      "LY": 2300,
      "SLY": 2301,
      "cli": 2302,
      "cord": 2303,
      "corn": 2304,
      "fled": 2305,
      "gn": 2306,
      "gir": 2307,
      "hun": 2308,
      "lish": 2309,
      "mir": 2310,
      "mio": 2311,
      "ny": 2312,
      "ror": 2313,
      "sort": 2314,
      "ues": 2315,
      "zed": 2316,
      "thor": 2317,
      "isure": 2318,
      "stood": 2319,
      "measure": 2320,
      "reck": 2321,
      "leisure": 2322,
      "church": 2323,
      "lic": 2324,
      "ket": 2325,
      "oop": 2326,
      "doing": 2327,
      "ties": 2328,
      "neck": 2329,
      "contin": 2330,
      "ustom": 2331,
      "bling": 2332,
      "blows": 2333,
      "akes": 2334,
      "worst": 2335,
      "perform": 2336,
      "astard": 2337,
      "lands": 2338,
      "angry": 2339,
      "affection": 2340,
      "greater": 2341,
      "MARIAN": 2342,
      "treason": 2343,
      "kindness": 2344,
      "drum": 2345,
      "pier": 2346,
      "weeping": 2347,
      "possible": 2348,
      "knee": 2349,
      "kneel": 2350,
      "banishment": 2351,
      "deserved": 2352,
      "guilty": 2353,
      "trouble": 2354,
      "natural": 2355,
      "Isabel": 2356,
      "MARIANA": 2357,
      "Af": 2358,
      "Am": 2359,
      "Bl": 2360,
      "Fa": 2361,
      "Grum": 2362,
      "Out": 2363,
      "Pri": 2364,
      "Pad": 2365,
      "PAR": 2366,
      "RA": 2367,
      "Watch": 2368,
      "big": 2369,
      "citizen": 2370,
      "dar": 2371,
      "doo": 2372,
      "evil": 2373,
      "fing": 2374,
      "fine": 2375,
      "five": 2376,
      "ker": 2377,
      "mut": 2378,
      "sus": 2379,
      "zen": 2380,
      "inf": 2381,
      "stre": 2382,
      "noise": 2383,
      "seal": 2384,
      "second": 2385,
      "reign": 2386,
      "because": 2387,
      "behind": 2388,
      "lease": 2389,
      "forbid": 2390,
      "assa": 2391,
      "aside": 2392,
      "ourselves": 2393,
      "eter": 2394,
      "sole": 2395,
      "dog": 2396,
      "pest": 2397,
      "lock": 2398,
      "condemn": 2399,
      "shepherd": 2400,
      "blow": 2401,
      "wouldst": 2402,
      "letter": 2403,
      "letters": 2404,
      "broad": 2405,
      "ument": 2406,
      "sport": 2407,
      "speaks": 2408,
      "march": 2409,
      "ignor": 2410,
      "grand": 2411,
      "beggar": 2412,
      "Sirrah": 2413,
      "shows": 2414,
      "sentence": 2415,
      "slew": 2416,
      "needs": 2417,
      "sense": 2418,
      "prisoner": 2419,
      "genet": 2420,
      "English": 2421,
      "position": 2422,
      "antagenet": 2423,
      "While": 2424,
      "Gremio": 2425,
      "obey": 2426,
      "conscience": 2427,
      "ladies": 2428,
      "Plantagenet": 2429,
      "liberty": 2430,
      "usurp": 2431,
      "clouds": 2432,
      "Grumio": 2433,
      "Padua": 2434,
      "PARIS": 2435,
      ":'": 2436,
      "Dis": 2437,
      "Fear": 2438,
      "Gaunt": 2439,
      "Men": 2440,
      "Ped": 2441,
      "Too": 2442,
      "Ver": 2443,
      "ale": 2444,
      "bones": 2445,
      "cing": 2446,
      "cret": 2447,
      "cried": 2448,
      "dry": 2449,
      "fat": 2450,
      "hund": 2451,
      "kin": 2452,
      "lp": 2453,
      "ual": 2454,
      "vain": 2455,
      "walk": 2456,
      "yond": 2457,
      "eness": 2458,
      "ators": 2459,
      "stone": 2460,
      "stop": 2461,
      "sever": 2462,
      "secret": 2463,
      "vey": 2464,
      "ities": 2465,
      "lea": 2466,
      "note": 2467,
      "few": 2468,
      "ider": 2469,
      "manner": 2470,
      "conce": 2471,
      "Think": 2472,
      "laid": 2473,
      "iles": 2474,
      "shed": 2475,
      "prosper": 2476,
      "quo": 2477,
      "quit": 2478,
      "dispatch": 2479,
      "fright": 2480,
      "spur": 2481,
      "plant": 2482,
      "lived": 2483,
      "PETER": 2484,
      "longer": 2485,
      "banished": 2486,
      "drunk": 2487,
      "glass": 2488,
      "womb": 2489,
      "golden": 2490,
      "choose": 2491,
      "damn": 2492,
      "Chris": 2493,
      "above": 2494,
      "victory": 2495,
      "swift": 2496,
      "masters": 2497,
      "slander": 2498,
      "hundred": 2499,
      "!--": 2500,
      "Could": 2501,
      "Cates": 2502,
      "DOR": 2503,
      "En": 2504,
      "Earl": 2505,
      "Fri": 2506,
      "LAR": 2507,
      "TIUS": 2508,
      "Wor": 2509,
      "WIS": 2510,
      "XI": 2511,
      "aking": 2512,
      "ail": 2513,
      "din": 2514,
      "dge": 2515,
      "drown": 2516,
      "fru": 2517,
      "lust": 2518,
      "moun": 2519,
      "ot": 2520,
      "phy": 2521,
      "sca": 2522,
      "uri": 2523,
      "ulet": 2524,
      "uction": 2525,
      "wain": 2526,
      "threat": 2527,
      "erle": 2528,
      "inius": 2529,
      "ances": 2530,
      "encounter": 2531,
      "tol": 2532,
      "hap": 2533,
      "bears": 2534,
      "wice": 2535,
      "forgot": 2536,
      "asion": 2537,
      "nder": 2538,
      "liest": 2539,
      "weary": 2540,
      "yourselves": 2541,
      "add": 2542,
      "ures": 2543,
      "host": 2544,
      "ARIEL": 2545,
      "shadow": 2546,
      "arden": 2547,
      "uel": 2548,
      "labour": 2549,
      "ilt": 2550,
      "venge": 2551,
      "ular": 2552,
      "knowledge": 2553,
      "proof": 2554,
      "quite": 2555,
      "oler": 2556,
      "woes": 2557,
      "despair": 2558,
      "desperate": 2559,
      "exc": 2560,
      "bray": 2561,
      "LEWIS": 2562,
      "precious": 2563,
      "effect": 2564,
      "pride": 2565,
      "Citizens": 2566,
      "lordship": 2567,
      "Unto": 2568,
      "steel": 2569,
      "double": 2570,
      "glory": 2571,
      "knees": 2572,
      "entertain": 2573,
      "blessed": 2574,
      "towards": 2575,
      "Capulet": 2576,
      "kinsman": 2577,
      "Watchman": 2578,
      "citizens": 2579,
      "Catesby": 2580,
      "LARTIUS": 2581,
      ";'": 2582,
      "Ab": 2583,
      "Ad": 2584,
      "Aum": 2585,
      "Bro": 2586,
      "MP": 2587,
      "Mow": 2588,
      "Pardon": 2589,
      "RTIS": 2590,
      "alive": 2591,
      "ben": 2592,
      "bastard": 2593,
      "dance": 2594,
      "fought": 2595,
      "grown": 2596,
      "gment": 2597,
      "hn": 2598,
      "mour": 2599,
      "mend": 2600,
      "money": 2601,
      "por": 2602,
      "pes": 2603,
      "sour": 2604,
      "schoo": 2605,
      "ude": 2606,
      "wench": 2607,
      "inking": 2608,
      "enjoy": 2609,
      "army": 2610,
      "ated": 2611,
      "methinks": 2612,
      "seven": 2613,
      "hair": 2614,
      "remain": 2615,
      "itors": 2616,
      "hire": 2617,
      "ires": 2618,
      "deter": 2619,
      "kept": 2620,
      "ads": 2621,
      "allow": 2622,
      "unts": 2623,
      "arest": 2624,
      "shake": 2625,
      "neigh": 2626,
      "contr": 2627,
      "table": 2628,
      "going": 2629,
      "proclaim": 2630,
      "ounds": 2631,
      "spent": 2632,
      "sim": 2633,
      "Within": 2634,
      "struck": 2635,
      "honours": 2636,
      "prepar": 2637,
      "ations": 2638,
      "flowers": 2639,
      "deadly": 2640,
      "clam": 2641,
      "guess": 2642,
      "understand": 2643,
      "steal": 2644,
      "guest": 2645,
      "CURTIS": 2646,
      "foolish": 2647,
      "promised": 2648,
      "John": 2649,
      "author": 2650,
      "wretched": 2651,
      "SAMP": 2652,
      "white": 2653,
      "cheeks": 2654,
      "firm": 2655,
      "Keeper": 2656,
      "Faith": 2657,
      "doom": 2658,
      "Pedant": 2659,
      "quoth": 2660,
      "Aumerle": 2661,
      "Mowbray": 2662,
      "SAMPSON": 2663,
      ":--": 2664,
      "Apo": 2665,
      "BU": 2666,
      "EX": 2667,
      "Either": 2668,
      "Hear": 2669,
      "IGON": 2670,
      "Mine": 2671,
      "Put": 2672,
      "bend": 2673,
      "cir": 2674,
      "dain": 2675,
      "due": 2676,
      "ffi": 2677,
      "hu": 2678,
      "rise": 2679,
      "sy": 2680,
      "vate": 2681,
      "yal": 2682,
      "inj": 2683,
      "orious": 2684,
      "aring": 2685,
      "arri": 2686,
      "stro": 2687,
      "stars": 2688,
      "health": 2689,
      "seiz": 2690,
      "lest": 2691,
      "rot": 2692,
      "deput": 2693,
      "ets": 2694,
      "door": 2695,
      "fell": 2696,
      "tide": 2697,
      "among": 2698,
      "ney": 2699,
      "nest": 2700,
      "supp": 2701,
      "herself": 2702,
      "teen": 2703,
      "teach": 2704,
      "ility": 2705,
      "blind": 2706,
      "cio": 2707,
      "cians": 2708,
      "early": 2709,
      "umb": 2710,
      "qual": 2711,
      "Heaven": 2712,
      "six": 2713,
      "brothers": 2714,
      "honourable": 2715,
      "calls": 2716,
      "bids": 2717,
      "kindred": 2718,
      "charity": 2719,
      "subst": 2720,
      "cutio": 2721,
      "truly": 2722,
      "month": 2723,
      "officer": 2724,
      "minister": 2725,
      "dreams": 2726,
      "humble": 2727,
      "demand": 2728,
      "ANTIGON": 2729,
      "wisdom": 2730,
      "Lewis": 2731,
      "cruel": 2732,
      "judge": 2733,
      "valour": 2734,
      "ician": 2735,
      "wretch": 2736,
      "Poor": 2737,
      "satisfied": 2738,
      "whether": 2739,
      "summer": 2740,
      "scarce": 2741,
      "Mercutio": 2742,
      "True": 2743,
      "school": 2744,
      "BURY": 2745,
      "ANTIGONUS": 2746,
      "Alack": 2747,
      "Bet": 2748,
      "Bid": 2749,
      "Harry": 2750,
      "Know": 2751,
      "Mus": 2752,
      "Made": 2753,
      "Never": 2754,
      "Show": 2755,
      "Twas": 2756,
      "TCLIFF": 2757,
      "avo": 2758,
      "abroad": 2759,
      "bb": 2760,
      "bright": 2761,
      "custom": 2762,
      "dur": 2763,
      "dwell": 2764,
      "eem": 2765,
      "mal": 2766,
      "ni": 2767,
      "ners": 2768,
      "pun": 2769,
      "ron": 2770,
      "ume": 2771,
      "thir": 2772,
      "thro": 2773,
      "ining": 2774,
      "anon": 2775,
      "envy": 2776,
      "arch": 2777,
      "ony": 2778,
      "sem": 2779,
      "hie": 2780,
      "dev": 2781,
      "deal": 2782,
      "alous": 2783,
      "loyal": 2784,
      "idle": 2785,
      "faint": 2786,
      "ament": 2787,
      "convey": 2788,
      "shrew": 2789,
      "iful": 2790,
      "ult": 2791,
      "thereof": 2792,
      "provost": 2793,
      "app": 2794,
      "view": 2795,
      "els": 2796,
      "acle": 2797,
      "angu": 2798,
      "others": 2799,
      "wherefore": 2800,
      "miser": 2801,
      "condition": 2802,
      "party": 2803,
      "foes": 2804,
      "flower": 2805,
      "priest": 2806,
      "private": 2807,
      "trial": 2808,
      "cles": 2809,
      "chase": 2810,
      "pleased": 2811,
      "Once": 2812,
      "crave": 2813,
      "wail": 2814,
      "venture": 2815,
      "vail": 2816,
      "yea": 2817,
      "laugh": 2818,
      "forced": 2819,
      "question": 2820,
      "winter": 2821,
      "Cominius": 2822,
      "walls": 2823,
      "judgment": 2824,
      "Volsces": 2825,
      "prophe": 2826,
      "spring": 2827,
      "creature": 2828,
      "blame": 2829,
      "malice": 2830,
      "RATCLIFF": 2831,
      "vengeance": 2832,
      "'?": 2833,
      "BIS": 2834,
      "Barn": 2835,
      "Des": 2836,
      "Fie": 2837,
      "Hence": 2838,
      "HOP": 2839,
      "Mant": 2840,
      "Ne": 2841,
      "Please": 2842,
      "Rut": 2843,
      "Under": 2844,
      "Vin": 2845,
      "Wi": 2846,
      "bite": 2847,
      "dull": 2848,
      "fold": 2849,
      "gg": 2850,
      "gin": 2851,
      "gown": 2852,
      "garm": 2853,
      "gage": 2854,
      "loo": 2855,
      "mn": 2856,
      "ok": 2857,
      "ray": 2858,
      "swords": 2859,
      "wing": 2860,
      "wag": 2861,
      "yard": 2862,
      "ering": 2863,
      "incl": 2864,
      "ens": 2865,
      "enes": 2866,
      "stones": 2867,
      "stoop": 2868,
      "lly": 2869,
      "meat": 2870,
      "top": 2871,
      "sell": 2872,
      "received": 2873,
      "vell": 2874,
      "leep": 2875,
      "cease": 2876,
      "former": 2877,
      "eding": 2878,
      "ution": 2879,
      "room": 2880,
      "ado": 2881,
      "als": 2882,
      "alter": 2883,
      "unning": 2884,
      "ident": 2885,
      "shal": 2886,
      "concl": 2887,
      "shri": 2888,
      "ANLE": 2889,
      "taken": 2890,
      "modest": 2891,
      "tect": 2892,
      "blest": 2893,
      "bot": 2894,
      "cap": 2895,
      "cian": 2896,
      "cial": 2897,
      "mayst": 2898,
      "proper": 2899,
      "IST": 2900,
      "spake": 2901,
      "vious": 2902,
      "vices": 2903,
      "account": 2904,
      "extre": 2905,
      "tyrant": 2906,
      "counten": 2907,
      "aff": 2908,
      "Lords": 2909,
      "ioli": 2910,
      "pack": 2911,
      "cock": 2912,
      "tract": 2913,
      "tongues": 2914,
      "STANLE": 2915,
      "fellows": 2916,
      "buried": 2917,
      "temper": 2918,
      "clock": 2919,
      "maids": 2920,
      "contented": 2921,
      "corse": 2922,
      "humour": 2923,
      "honesty": 2924,
      "Peter": 2925,
      "Corioli": 2926,
      "Whilst": 2927,
      "Methinks": 2928,
      "Death": 2929,
      "brows": 2930,
      "divine": 2931,
      "changed": 2932,
      "BALT": 2933,
      "Thomas": 2934,
      "easy": 2935,
      "TYBALT": 2936,
      "Paulina": 2937,
      "After": 2938,
      "fruit": 2939,
      "excuse": 2940,
      "deputy": 2941,
      "BISHOP": 2942,
      "Mantua": 2943,
      "Rutland": 2944,
      "Vincentio": 2945,
      "STANLEY": 2946,
      "AL": 2947,
      "GE": 2948,
      "Ind": 2949,
      "KEN": 2950,
      "Si": 2951,
      "Som": 2952,
      "Tut": 2953,
      "ama": 2954,
      "cup": 2955,
      "dri": 2956,
      "dust": 2957,
      "eed": 2958,
      "fan": 2959,
      "fret": 2960,
      "fran": 2961,
      "gif": 2962,
      "ild": 2963,
      "kna": 2964,
      "ler": 2965,
      "pin": 2966,
      "round": 2967,
      "smile": 2968,
      "twixt": 2969,
      "twice": 2970,
      "vish": 2971,
      "whis": 2972,
      "wra": 2973,
      "wine": 2974,
      "wol": 2975,
      "thunder": 2976,
      "anley": 2977,
      "arp": 2978,
      "arti": 2979,
      "star": 2980,
      "llen": 2981,
      "noon": 2982,
      "nose": 2983,
      "ref": 2984,
      "ites": 2985,
      "ited": 2986,
      "beard": 2987,
      "lean": 2988,
      "utter": 2989,
      "lia": 2990,
      "west": 2991,
      "weigh": 2992,
      "wealth": 2993,
      "ghost": 2994,
      "wither": 2995,
      "always": 2996,
      "lot": 2997,
      "idings": 2998,
      "fain": 2999,
      "necess": 3000,
      "constant": 3001,
      "AND": 3002,
      "sheep": 3003,
      "blush": 3004,
      "sail": 3005,
      "safet": 3006,
      "sacred": 3007,
      "sirrah": 3008,
      "therein": 3009,
      "perceive": 3010,
      "fiery": 3011,
      "sire": 3012,
      "stern": 3013,
      "import": 3014,
      "tyran": 3015,
      "chief": 3016,
      "affair": 3017,
      "abs": 3018,
      "prevent": 3019,
      "emp": 3020,
      "embrace": 3021,
      "Anti": 3022,
      "THOM": 3023,
      "commend": 3024,
      "wicked": 3025,
      "courage": 3026,
      "whilst": 3027,
      "Dost": 3028,
      "traitors": 3029,
      "faced": 3030,
      "charged": 3031,
      "rench": 3032,
      "passion": 3033,
      "repent": 3034,
      "drawn": 3035,
      "senate": 3036,
      "wrongs": 3037,
      "remedy": 3038,
      "green": 3039,
      "Stanley": 3040,
      "Prince": 3041,
      "reasons": 3042,
      "gross": 3043,
      "pains": 3044,
      "silence": 3045,
      "Caius": 3046,
      "Jove": 3047,
      "choice": 3048,
      "drop": 3049,
      "knave": 3050,
      "Besides": 3051,
      "plot": 3052,
      "Art": 3053,
      "Mistress": 3054,
      "BRAKEN": 3055,
      "occasion": 3056,
      "innocent": 3057,
      "girl": 3058,
      "Verona": 3059,
      "leaves": 3060,
      "Friar": 3061,
      "Brother": 3062,
      "simple": 3063,
      "prepared": 3064,
      "circ": 3065,
      "Somer": 3066,
      "safety": 3067,
      "THOMAS": 3068,
      "BRAKENBURY": 3069,
      "?'": 3070,
      "Di": 3071,
      "Dor": 3072,
      "DER": 3073,
      "Fl": 3074,
      "GOR": 3075,
      "MIST": 3076,
      "OV": 3077,
      "RESS": 3078,
      "Turn": 3079,
      "aught": 3080,
      "ball": 3081,
      "bark": 3082,
      "eag": 3083,
      "fla": 3084,
      "fury": 3085,
      "garden": 3086,
      "hit": 3087,
      "hors": 3088,
      "itol": 3089,
      "jour": 3090,
      "lan": 3091,
      "langu": 3092,
      "ras": 3093,
      "sits": 3094,
      "uff": 3095,
      "went": 3096,
      "wings": 3097,
      "zard": 3098,
      "inous": 3099,
      "inform": 3100,
      "oracle": 3101,
      "enius": 3102,
      "ating": 3103,
      "onoun": 3104,
      "haps": 3105,
      "roth": 3106,
      "rock": 3107,
      "lix": 3108,
      "del": 3109,
      "dew": 3110,
      "delight": 3111,
      "deceived": 3112,
      "weeds": 3113,
      "key": 3114,
      "thout": 3115,
      "adie": 3116,
      "alas": 3117,
      "hollow": 3118,
      "loath": 3119,
      "tive": 3120,
      "tired": 3121,
      "amp": 3122,
      "ardine": 3123,
      "conqu": 3124,
      "motion": 3125,
      "iff": 3126,
      "wore": 3127,
      "ctise": 3128,
      "complain": 3129,
      "Myself": 3130,
      "mayor": 3131,
      "broken": 3132,
      "prov": 3133,
      "quaint": 3134,
      "plead": 3135,
      "appare": 3136,
      "ONE": 3137,
      "Offi": 3138,
      "design": 3139,
      "despite": 3140,
      "imprison": 3141,
      "wherein": 3142,
      "ughters": 3143,
      "Wherein": 3144,
      "prayer": 3145,
      "pawn": 3146,
      "rude": 3147,
      "holds": 3148,
      "plague": 3149,
      "tread": 3150,
      "treach": 3151,
      "fares": 3152,
      "GREGOR": 3153,
      "meaning": 3154,
      "renown": 3155,
      "jealous": 3156,
      "passing": 3157,
      "welve": 3158,
      "gives": 3159,
      "cares": 3160,
      "carry": 3161,
      "witch": 3162,
      "wanton": 3163,
      "deserve": 3164,
      "silver": 3165,
      "cursed": 3166,
      "troth": 3167,
      "profess": 3168,
      "Having": 3169,
      "Capitol": 3170,
      "belly": 3171,
      "stuff": 3172,
      "castle": 3173,
      "practise": 3174,
      "cheek": 3175,
      "colour": 3176,
      "violent": 3177,
      "boot": 3178,
      "borne": 3179,
      "trumpets": 3180,
      "ERDONE": 3181,
      "hung": 3182,
      "Prithee": 3183,
      "finger": 3184,
      "ignorant": 3185,
      "Menenius": 3186,
      "fatal": 3187,
      "Christi": 3188,
      "benef": 3189,
      "Apollo": 3190,
      "rotten": 3191,
      "Barnardine": 3192,
      "Without": 3193,
      "countenance": 3194,
      "Indeed": 3195,
      "absence": 3196,
      "Somerset": 3197,
      "DERBY": 3198,
      "MISTRESS": 3199,
      "OVERDONE": 3200,
      "adieu": 3201,
      "GREGORY": 3202,
      "CH": 3203,
      "Cousin": 3204,
      "FORD": 3205,
      "Great": 3206,
      "Ho": 3207,
      "OX": 3208,
      "Pis": 3209,
      "RR": 3210,
      "Res": 3211,
      "SOM": 3212,
      "Still": 3213,
      "VAL": 3214,
      "ax": 3215,
      "aim": 3216,
      "cat": 3217,
      "crow": 3218,
      "ek": 3219,
      "fas": 3220,
      "ial": 3221,
      "ience": 3222,
      "lend": 3223,
      "nine": 3224,
      "number": 3225,
      "pul": 3226,
      "passa": 3227,
      "rate": 3228,
      "sme": 3229,
      "sli": 3230,
      "sday": 3231,
      "saint": 3232,
      "sooth": 3233,
      "ton": 3234,
      "tidings": 3235,
      "vantage": 3236,
      "wand": 3237,
      "wof": 3238,
      "wood": 3239,
      "inher": 3240,
      "isle": 3241,
      "envious": 3242,
      "stat": 3243,
      "mess": 3244,
      "esy": 3245,
      "nobles": 3246,
      "rema": 3247,
      "receive": 3248,
      "becomes": 3249,
      "wives": 3250,
      "hion": 3251,
      "asleep": 3252,
      "ldom": 3253,
      "utes": 3254,
      "lim": 3255,
      "deposed": 3256,
      "ety": 3257,
      "ursday": 3258,
      "lod": 3259,
      "fam": 3260,
      "tial": 3261,
      "neg": 3262,
      "butcher": 3263,
      "contract": 3264,
      "Three": 3265,
      "Thursday": 3266,
      "shut": 3267,
      "shore": 3268,
      "tail": 3269,
      "tres": 3270,
      "ERIA": 3271,
      "ify": 3272,
      "persu": 3273,
      "perfect": 3274,
      "outward": 3275,
      "uments": 3276,
      "protect": 3277,
      "whole": 3278,
      "shouldst": 3279,
      "disgrace": 3280,
      "disposition": 3281,
      "Into": 3282,
      "RICHMON": 3283,
      "access": 3284,
      "express": 3285,
      "excell": 3286,
      "bran": 3287,
      "babe": 3288,
      "gentlewoman": 3289,
      "offend": 3290,
      "standing": 3291,
      "Mark": 3292,
      "prepare": 3293,
      "names": 3294,
      "parts": 3295,
      "serves": 3296,
      "undone": 3297,
      "resign": 3298,
      "commit": 3299,
      "inted": 3300,
      "Rivers": 3301,
      "preser": 3302,
      "ruin": 3303,
      "whither": 3304,
      "begins": 3305,
      "mione": 3306,
      "brain": 3307,
      "tedious": 3308,
      "farther": 3309,
      "thrust": 3310,
      "seeming": 3311,
      "quire": 3312,
      "clear": 3313,
      "follows": 3314,
      "followers": 3315,
      "curst": 3316,
      "fools": 3317,
      "Hermione": 3318,
      "hanging": 3319,
      "spoken": 3320,
      "groom": 3321,
      "lamb": 3322,
      "advise": 3323,
      "advantage": 3324,
      "Grey": 3325,
      "troop": 3326,
      "instruct": 3327,
      "supper": 3328,
      "ERSET": 3329,
      "resolved": 3330,
      "cries": 3331,
      "mission": 3332,
      "guilt": 3333,
      "awake": 3334,
      "thrive": 3335,
      "burthen": 3336,
      "sighs": 3337,
      "dreadful": 3338,
      "hurt": 3339,
      "storm": 3340,
      "obedience": 3341,
      "damned": 3342,
      "dinner": 3343,
      "physi": 3344,
      "authority": 3345,
      "Musician": 3346,
      "throat": 3347,
      "devise": 3348,
      "garments": 3349,
      "affairs": 3350,
      "rascal": 3351,
      "Christian": 3352,
      "benefit": 3353,
      "OXFORD": 3354,
      "Pisa": 3355,
      "SOMERSET": 3356,
      "VALERIA": 3357,
      "woful": 3358,
      "RICHMOND": 3359,
      "AE": 3360,
      "AMIL": 3361,
      "Br": 3362,
      "BUS": 3363,
      "Bion": 3364,
      "Bona": 3365,
      "El": 3366,
      "Gra": 3367,
      "HY": 3368,
      "Has": 3369,
      "LIUS": 3370,
      "MOW": 3371,
      "MOP": 3372,
      "MAMIL": 3373,
      "Sici": 3374,
      "Two": 3375,
      "Tail": 3376,
      "Very": 3377,
      "bas": 3378,
      "bond": 3379,
      "cate": 3380,
      "cunning": 3381,
      "ele": 3382,
      "east": 3383,
      "fle": 3384,
      "flight": 3385,
      "flies": 3386,
      "gy": 3387,
      "ime": 3388,
      "ives": 3389,
      "iest": 3390,
      "line": 3391,
      "list": 3392,
      "mur": 3393,
      "mbr": 3394,
      "pure": 3395,
      "rt": 3396,
      "rent": 3397,
      "rash": 3398,
      "san": 3399,
      "sho": 3400,
      "sway": 3401,
      "tut": 3402,
      "twelve": 3403,
      "ug": 3404,
      "ued": 3405,
      "van": 3406,
      "yonder": 3407,
      "thi": 3408,
      "inion": 3409,
      "ences": 3410,
      "step": 3411,
      "stab": 3412,
      "habit": 3413,
      "vex": 3414,
      "belike": 3415,
      "beloved": 3416,
      "beheld": 3417,
      "legs": 3418,
      "owe": 3419,
      "forsworn": 3420,
      "asp": 3421,
      "roar": 3422,
      "root": 3423,
      "lion": 3424,
      "delay": 3425,
      "dello": 3426,
      "weight": 3427,
      "weap": 3428,
      "adventure": 3429,
      "alm": 3430,
      "usion": 3431,
      "rain": 3432,
      "until": 3433,
      "sued": 3434,
      "sured": 3435,
      "suffi": 3436,
      "conj": 3437,
      "pronoun": 3438,
      "shr": 3439,
      "taste": 3440,
      "ouses": 3441,
      "ETER": 3442,
      "teeth": 3443,
      "goodness": 3444,
      "iffer": 3445,
      "kingly": 3446,
      "peril": 3447,
      "perish": 3448,
      "atest": 3449,
      "seeing": 3450,
      "ages": 3451,
      "ump": 3452,
      "umble": 3453,
      "protest": 3454,
      "timely": 3455,
      "quench": 3456,
      "Help": 3457,
      "fathers": 3458,
      "disdain": 3459,
      "ounty": 3460,
      "spend": 3461,
      "accept": 3462,
      "Believe": 3463,
      "ABHOR": 3464,
      "exile": 3465,
      "affect": 3466,
      "ursed": 3467,
      "prey": 3468,
      "prevail": 3469,
      "conduct": 3470,
      "tled": 3471,
      "emplo": 3472,
      "paper": 3473,
      "fortunes": 3474,
      "betwixt": 3475,
      "daughters": 3476,
      "intend": 3477,
      "prize": 3478,
      "dying": 3479,
      "parent": 3480,
      "gues": 3481,
      "keeps": 3482,
      "denied": 3483,
      "confer": 3484,
      "chair": 3485,
      "sorry": 3486,
      "happiness": 3487,
      "compan": 3488,
      "Boy": 3489,
      "remembr": 3490,
      "petition": 3491,
      "spirits": 3492,
      "crack": 3493,
      "slow": 3494,
      "accus": 3495,
      "accuse": 3496,
      "corrup": 3497,
      "humbly": 3498,
      "wounded": 3499,
      "courtesy": 3500,
      "Leave": 3501,
      "penit": 3502,
      "wallow": 3503,
      "atswain": 3504,
      "resolve": 3505,
      "wont": 3506,
      "credit": 3507,
      "Polix": 3508,
      "wedding": 3509,
      "Beseech": 3510,
      "palace": 3511,
      "direct": 3512,
      "BRAY": 3513,
      "pleasant": 3514,
      "large": 3515,
      "continue": 3516,
      "dares": 3517,
      "solemn": 3518,
      "several": 3519,
      "threaten": 3520,
      "neighbour": 3521,
      "contrary": 3522,
      "EXETER": 3523,
      "human": 3524,
      "punish": 3525,
      "miserable": 3526,
      "wrath": 3527,
      "empty": 3528,
      "circum": 3529,
      "horses": 3530,
      "conquer": 3531,
      "Officer": 3532,
      "BUSHY": 3533,
      "Biondello": 3534,
      "MOWBRAY": 3535,
      "MOPSA": 3536,
      "MAMILLIUS": 3537,
      "Tailor": 3538,
      "ABHORSON": 3539,
      "employ": 3540,
      "Polixenes": 3541,
      "Bear": 3542,
      "CY": 3543,
      "Dear": 3544,
      "Father": 3545,
      "French": 3546,
      "Might": 3547,
      "None": 3548,
      "Nap": 3549,
      "Ret": 3550,
      "Right": 3551,
      "Wid": 3552,
      "ago": 3553,
      "catch": 3554,
      "dit": 3555,
      "ded": 3556,
      "dag": 3557,
      "fro": 3558,
      "furn": 3559,
      "gon": 3560,
      "gate": 3561,
      "hark": 3562,
      "houses": 3563,
      "iled": 3564,
      "luck": 3565,
      "mere": 3566,
      "mill": 3567,
      "mity": 3568,
      "ns": 3569,
      "naked": 3570,
      "pic": 3571,
      "pub": 3572,
      "song": 3573,
      "sco": 3574,
      "swallow": 3575,
      "wond": 3576,
      "wits": 3577,
      "wreck": 3578,
      "intell": 3579,
      "infect": 3580,
      "incre": 3581,
      "story": 3582,
      "heed": 3583,
      "seas": 3584,
      "reed": 3585,
      "reward": 3586,
      "beyond": 3587,
      "hid": 3588,
      "rose": 3589,
      "dep": 3590,
      "devo": 3591,
      "wept": 3592,
      "hatred": 3593,
      "ourish": 3594,
      "ride": 3595,
      "urance": 3596,
      "raw": 3597,
      "unnatural": 3598,
      "making": 3599,
      "fee": 3600,
      "ARCH": 3601,
      "hereafter": 3602,
      "fail": 3603,
      "faces": 3604,
      "tire": 3605,
      "amen": 3606,
      "suck": 3607,
      "terror": 3608,
      "endure": 3609,
      "lace": 3610,
      "shun": 3611,
      "taught": 3612,
      "ously": 3613,
      "bodies": 3614,
      "ants": 3615,
      "capt": 3616,
      "perpet": 3617,
      "comfor": 3618,
      "comple": 3619,
      "seest": 3620,
      "theirs": 3621,
      "dign": 3622,
      "Nothing": 3623,
      "wholes": 3624,
      "apt": 3625,
      "appoint": 3626,
      "sometime": 3627,
      "sometimes": 3628,
      "fig": 3629,
      "discover": 3630,
      "wot": 3631,
      "spare": 3632,
      "hearted": 3633,
      "vide": 3634,
      "market": 3635,
      "ples": 3636,
      "expect": 3637,
      "iment": 3638,
      "chide": 3639,
      "mistake": 3640,
      "misery": 3641,
      "fairly": 3642,
      "Marshal": 3643,
      "services": 3644,
      "called": 3645,
      "assist": 3646,
      "assurance": 3647,
      "folly": 3648,
      "THAS": 3649,
      "intent": 3650,
      "scene": 3651,
      "Thanks": 3652,
      "rule": 3653,
      "opinion": 3654,
      "trick": 3655,
      "whiles": 3656,
      "crowns": 3657,
      "partic": 3658,
      "joys": 3659,
      "joyful": 3660,
      "needful": 3661,
      "undertake": 3662,
      "PERCY": 3663,
      "giving": 3664,
      "build": 3665,
      "patri": 3666,
      "curses": 3667,
      "senators": 3668,
      "Only": 3669,
      "monstr": 3670,
      "turns": 3671,
      "waking": 3672,
      "winds": 3673,
      "commanded": 3674,
      "groan": 3675,
      "painted": 3676,
      "Mayor": 3677,
      "waters": 3678,
      "advance": 3679,
      "advised": 3680,
      "destroy": 3681,
      "instrument": 3682,
      "calm": 3683,
      "leads": 3684,
      "counterfeit": 3685,
      "drops": 3686,
      "shortly": 3687,
      "duked": 3688,
      "praise": 3689,
      "Love": 3690,
      "hopes": 3691,
      "griev": 3692,
      "sky": 3693,
      "piteous": 3694,
      "colours": 3695,
      "BALTHAS": 3696,
      "reverend": 3697,
      "princes": 3698,
      "princess": 3699,
      "willingly": 3700,
      "government": 3701,
      "urious": 3702,
      "determin": 3703,
      "durst": 3704,
      "looking": 3705,
      "language": 3706,
      "apparel": 3707,
      "remains": 3708,
      "excellent": 3709,
      "remembrance": 3710,
      "Widow": 3711,
      "picion": 3712,
      "public": 3713,
      "wholesome": 3714,
      "dukedom": 3715,
      "BALTHASAR": 3716,
      "?--": 3717,
      "Ac": 3718,
      "Amen": 3719,
      "Four": 3720,
      "FOL": 3721,
      "Im": 3722,
      "Just": 3723,
      "Lay": 3724,
      "Long": 3725,
      "Pat": 3726,
      "Page": 3727,
      "Post": 3728,
      "Rep": 3729,
      "Set": 3730,
      "Sup": 3731,
      "Save": 3732,
      "Sold": 3733,
      "Tit": 3734,
      "Vi": 3735,
      "Whither": 3736,
      "ald": 3737,
      "bon": 3738,
      "bare": 3739,
      "cend": 3740,
      "cise": 3741,
      "fare": 3742,
      "gree": 3743,
      "knight": 3744,
      "lis": 3745,
      "mul": 3746,
      "murderer": 3747,
      "net": 3748,
      "nought": 3749,
      "pent": 3750,
      "purse": 3751,
      "powers": 3752,
      "ress": 3753,
      "rust": 3754,
      "rous": 3755,
      "sink": 3756,
      "sins": 3757,
      "slay": 3758,
      "scept": 3759,
      "slip": 3760,
      "tort": 3761,
      "uary": 3762,
      "vouch": 3763,
      "vours": 3764,
      "wake": 3765,
      "thorn": 3766,
      "inst": 3767,
      "instant": 3768,
      "orous": 3769,
      "ises": 3770,
      "ishop": 3771,
      "enmity": 3772,
      "aries": 3773,
      "attempt": 3774,
      "stol": 3775,
      "store": 3776,
      "stret": 3777,
      "strew": 3778,
      "meant": 3779,
      "medi": 3780,
      "member": 3781,
      "tomb": 3782,
      "sequ": 3783,
      "season": 3784,
      "repe": 3785,
      "rebel": 3786,
      "repair": 3787,
      "revol": 3788,
      "realm": 3789,
      "vest": 3790,
      "behalf": 3791,
      "hill": 3792,
      "choler": 3793,
      "rogue": 3794,
      "liar": 3795,
      "dece": 3796,
      "deem": 3797,
      "debt": 3798,
      "degree": 3799,
      "weather": 3800,
      "keeper": 3801,
      "ries": 3802,
      "aded": 3803,
      "advers": 3804,
      "uses": 3805,
      "soever": 3806,
      "raise": 3807,
      "ording": 3808,
      "unknown": 3809,
      "untimely": 3810,
      "mag": 3811,
      "mage": 3812,
      "maint": 3813,
      "feed": 3814,
      "idence": 3815,
      "fame": 3816,
      "faction": 3817,
      "manners": 3818,
      "tied": 3819,
      "tily": 3820,
      "shape": 3821,
      "sues": 3822,
      "terms": 3823,
      "arts": 3824,
      "sharp": 3825,
      "comest": 3826,
      "taking": 3827,
      "boar": 3828,
      "venom": 3829,
      "compl": 3830,
      "earnest": 3831,
      "special": 3832,
      "brook": 3833,
      "Young": 3834,
      "appre": 3835,
      "fix": 3836,
      "CAS": 3837,
      "disper": 3838,
      "spite": 3839,
      "brings": 3840,
      "bred": 3841,
      "armour": 3842,
      "friendly": 3843,
      "absent": 3844,
      "March": 3845,
      "merit": 3846,
      "pping": 3847,
      "write": 3848,
      "bearing": 3849,
      "privile": 3850,
      "longs": 3851,
      "trade": 3852,
      "kindly": 3853,
      "engthen": 3854,
      "slept": 3855,
      "camest": 3856,
      "lasting": 3857,
      "dress": 3858,
      "glorious": 3859,
      "boys": 3860,
      "ships": 3861,
      "clothe": 3862,
      "maiden": 3863,
      "Boatswain": 3864,
      "grey": 3865,
      "hateful": 3866,
      "ROSS": 3867,
      "wants": 3868,
      "deserves": 3869,
      "Gentlemen": 3870,
      "NORFOL": 3871,
      "freely": 3872,
      "smooth": 3873,
      "uteous": 3874,
      "Lucio": 3875,
      "grows": 3876,
      "consider": 3877,
      "Came": 3878,
      "instruction": 3879,
      "supposed": 3880,
      "bird": 3881,
      "profit": 3882,
      "granted": 3883,
      "feeling": 3884,
      "resolution": 3885,
      "Volsce": 3886,
      "knife": 3887,
      "torment": 3888,
      "frame": 3889,
      "odds": 3890,
      "solute": 3891,
      "respected": 3892,
      "Those": 3893,
      "pleasing": 3894,
      "approach": 3895,
      "gently": 3896,
      "Exeter": 3897,
      "obedient": 3898,
      "drums": 3899,
      "suspect": 3900,
      "suspicion": 3901,
      "DORCAS": 3902,
      "Worthy": 3903,
      "mourn": 3904,
      "seize": 3905,
      "amazed": 3906,
      "Dorset": 3907,
      "treacher": 3908,
      "fashion": 3909,
      "passage": 3910,
      "Sicilia": 3911,
      "sanct": 3912,
      "thief": 3913,
      "Naples": 3914,
      "dagger": 3915,
      "scope": 3916,
      "intellig": 3917,
      "increase": 3918,
      "captain": 3919,
      "particular": 3920,
      "monstrous": 3921,
      "sceptre": 3922,
      "NORFOLK": 3923,
      "Ber": 3924,
      "Bre": 3925,
      "Bra": 3926,
      "Bring": 3927,
      "Co": 3928,
      "Down": 3929,
      "Fe": 3930,
      "FERD": 3931,
      "Froth": 3932,
      "GH": 3933,
      "Ghost": 3934,
      "Hunts": 3935,
      "Ire": 3936,
      "Jack": 3937,
      "La": 3938,
      "Mil": 3939,
      "NS": 3940,
      "Play": 3941,
      "Rat": 3942,
      "Son": 3943,
      "Sal": 3944,
      "SET": 3945,
      "Stri": 3946,
      "Wilt": 3947,
      "alike": 3948,
      "bill": 3949,
      "bours": 3950,
      "cere": 3951,
      "cus": 3952,
      "chast": 3953,
      "dower": 3954,
      "eve": 3955,
      "equal": 3956,
      "fy": 3957,
      "fif": 3958,
      "hunt": 3959,
      "ia": 3960,
      "irest": 3961,
      "knot": 3962,
      "lun": 3963,
      "lark": 3964,
      "loud": 3965,
      "nal": 3966,
      "oak": 3967,
      "path": 3968,
      "pound": 3969,
      "ption": 3970,
      "rand": 3971,
      "rend": 3972,
      "sain": 3973,
      "sion": 3974,
      "swell": 3975,
      "sore": 3976,
      "south": 3977,
      "vows": 3978,
      "yo": 3979,
      "thread": 3980,
      "ints": 3981,
      "island": 3982,
      "enforce": 3983,
      "ature": 3984,
      "atic": 3985,
      "melt": 3986,
      "esca": 3987,
      "nobl": 3988,
      "nobly": 3989,
      "rey": 3990,
      "rece": 3991,
      "rebell": 3992,
      "veins": 3993,
      "bethink": 3994,
      "forbear": 3995,
      "fords": 3996,
      "assured": 3997,
      "liament": 3998,
      "oot": 3999,
      "ades": 4000,
      "adver": 4001,
      "advice": 4002,
      "urged": 4003,
      "INAND": 4004,
      "raised": 4005,
      "unless": 4006,
      "unjust": 4007,
      "peers": 4008,
      "fears": 4009,
      "locks": 4010,
      "contempt": 4011,
      "shine": 4012,
      "points": 4013,
      "tame": 4014,
      "takes": 4015,
      "lovely": 4016,
      "perj": 4017,
      "perforce": 4018,
      "outs": 4019,
      "commission": 4020,
      "saying": 4021,
      "lets": 4022,
      "dile": 4023,
      "ague": 4024,
      "likely": 4025,
      "provo": 4026,
      "shoulder": 4027,
      "estate": 4028,
      "exam": 4029,
      "heavi": 4030,
      "tells": 4031,
      "whereof": 4032,
      "county": 4033,
      "afford": 4034,
      "hasty": 4035,
      "abhor": 4036,
      "served": 4037,
      "flow": 4038,
      "paid": 4039,
      "merri": 4040,
      "north": 4041,
      "daily": 4042,
      "warlike": 4043,
      "wrought": 4044,
      "score": 4045,
      "ruth": 4046,
      "ruly": 4047,
      "puts": 4048,
      "oppos": 4049,
      "begg": 4050,
      "begun": 4051,
      "trees": 4052,
      "braw": 4053,
      "parliament": 4054,
      "Until": 4055,
      "GREEN": 4056,
      "finds": 4057,
      "jewel": 4058,
      "afternoon": 4059,
      "shield": 4060,
      "carried": 4061,
      "current": 4062,
      "virgin": 4063,
      "greatest": 4064,
      "elder": 4065,
      "soundly": 4066,
      "wait": 4067,
      "accused": 4068,
      "according": 4069,
      "sends": 4070,
      "vault": 4071,
      "revenged": 4072,
      "hanged": 4073,
      "desert": 4074,
      "Rosal": 4075,
      "Conspir": 4076,
      "groans": 4077,
      "smiles": 4078,
      "single": 4079,
      "hardly": 4080,
      "silent": 4081,
      "ALONS": 4082,
      "instruments": 4083,
      "darest": 4084,
      "profan": 4085,
      "pieces": 4086,
      "stock": 4087,
      "study": 4088,
      "sickness": 4089,
      "waste": 4090,
      "Romans": 4091,
      "thrice": 4092,
      "Pomfret": 4093,
      "aboard": 4094,
      "grieve": 4095,
      "fires": 4096,
      "odd": 4097,
      "Keep": 4098,
      "imag": 4099,
      "reverence": 4100,
      "TYRR": 4101,
      "boots": 4102,
      "cliff": 4103,
      "affections": 4104,
      "streets": 4105,
      "prosperous": 4106,
      "DORSET": 4107,
      "lusty": 4108,
      "haply": 4109,
      "About": 4110,
      "arrived": 4111,
      "stroke": 4112,
      "avoid": 4113,
      "third": 4114,
      "extreme": 4115,
      "affli": 4116,
      "gift": 4117,
      "whisper": 4118,
      "journey": 4119,
      "imprisonment": 4120,
      "messenger": 4121,
      "protector": 4122,
      "committed": 4123,
      "AEdile": 4124,
      "murd": 4125,
      "circumst": 4126,
      "perpetual": 4127,
      "grievous": 4128,
      "Soldier": 4129,
      "Titus": 4130,
      "maintain": 4131,
      "treacherous": 4132,
      "sanctuary": 4133,
      "FERDINAND": 4134,
      "Huntsman": 4135,
      "Ireland": 4136,
      "Ratcliff": 4137,
      "Rosaline": 4138,
      "ALONSO": 4139,
      "TYRREL": 4140,
      ";--": 4141,
      "Ap": 4142,
      "Ano": 4143,
      "Ben": 4144,
      "Bus": 4145,
      "Cour": 4146,
      "Der": 4147,
      "Draw": 4148,
      "Fo": 4149,
      "Fare": 4150,
      "Fair": 4151,
      "Happ": 4152,
      "LIS": 4153,
      "Makes": 4154,
      "Rather": 4155,
      "Soft": 4156,
      "Tar": 4157,
      "Tri": 4158,
      "Twere": 4159,
      "ah": 4160,
      "buck": 4161,
      "bility": 4162,
      "cou": 4163,
      "cti": 4164,
      "coff": 4165,
      "differ": 4166,
      "event": 4167,
      "fun": 4168,
      "food": 4169,
      "frow": 4170,
      "horn": 4171,
      "iance": 4172,
      "lour": 4173,
      "lent": 4174,
      "length": 4175,
      "mand": 4176,
      "nap": 4177,
      "oe": 4178,
      "ointed": 4179,
      "ping": 4180,
      "pup": 4181,
      "pil": 4182,
      "rare": 4183,
      "rrel": 4184,
      "snow": 4185,
      "tall": 4186,
      "tur": 4187,
      "tree": 4188,
      "task": 4189,
      "tarry": 4190,
      "waked": 4191,
      "wakes": 4192,
      "yes": 4193,
      "erce": 4194,
      "iny": 4195,
      "incen": 4196,
      "ortion": 4197,
      "isbury": 4198,
      "enant": 4199,
      "enna": 4200,
      "ative": 4201,
      "ont": 4202,
      "sting": 4203,
      "stout": 4204,
      "stable": 4205,
      "stamp": 4206,
      "melan": 4207,
      "tom": 4208,
      "hest": 4209,
      "youn": 4210,
      "esar": 4211,
      "sees": 4212,
      "sets": 4213,
      "secure": 4214,
      "havi": 4215,
      "recon": 4216,
      "remor": 4217,
      "rejo": 4218,
      "reput": 4219,
      "remove": 4220,
      "record": 4221,
      "redeem": 4222,
      "vet": 4223,
      "betr": 4224,
      "betimes": 4225,
      "wide": 4226,
      "myster": 4227,
      "owl": 4228,
      "forgive": 4229,
      "forswear": 4230,
      "forfeit": 4231,
      "assure": 4232,
      "irt": 4233,
      "eder": 4234,
      "utenant": 4235,
      "rob": 4236,
      "lift": 4237,
      "liken": 4238,
      "limit": 4239,
      "deck": 4240,
      "detest": 4241,
      "ool": 4242,
      "oose": 4243,
      "ripe": 4244,
      "admit": 4245,
      "although": 4246,
      "alack": 4247,
      "alliance": 4248,
      "urge": 4249,
      "lying": 4250,
      "rail": 4251,
      "unhappy": 4252,
      "holp": 4253,
      "mach": 4254,
      "fest": 4255,
      "feet": 4256,
      "feather": 4257,
      "lots": 4258,
      "fact": 4259,
      "fairest": 4260,
      "tier": 4261,
      "ams": 4262,
      "aming": 4263,
      "hers": 4264,
      "contro": 4265,
      "morn": 4266,
      "mory": 4267,
      "poli": 4268,
      "poster": 4269,
      "tap": 4270,
      "teous": 4271,
      "caught": 4272,
      "blown": 4273,
      "blunt": 4274,
      "dim": 4275,
      "civil": 4276,
      "aged": 4277,
      "agree": 4278,
      "umbling": 4279,
      "vessel": 4280,
      "Noble": 4281,
      "muster": 4282,
      "graves": 4283,
      "appet": 4284,
      "apparent": 4285,
      "dissem": 4286,
      "spy": 4287,
      "spit": 4288,
      "aches": 4289,
      "achie": 4290,
      "desires": 4291,
      "exer": 4292,
      "exchange": 4293,
      "bade": 4294,
      "impossible": 4295,
      "counc": 4296,
      "newly": 4297,
      "mistrust": 4298,
      "ably": 4299,
      "abide": 4300,
      "offended": 4301,
      "fairer": 4302,
      "Marian": 4303,
      "parting": 4304,
      "parted": 4305,
      "partly": 4306,
      "joint": 4307,
      "flood": 4308,
      "cot": 4309,
      "cost": 4310,
      "ullus": 4311,
      "grat": 4312,
      "wrink": 4313,
      "scal": 4314,
      "prick": 4315,
      "ruled": 4316,
      "tribut": 4317,
      "whip": 4318,
      "begu": 4319,
      "treasure": 4320,
      "Proceed": 4321,
      "helm": 4322,
      "charac": 4323,
      "powerful": 4324,
      "besides": 4325,
      "beseem": 4326,
      "native": 4327,
      "stead": 4328,
      "tempest": 4329,
      "meeting": 4330,
      "weeps": 4331,
      "craft": 4332,
      "dowry": 4333,
      "posing": 4334,
      "accident": 4335,
      "falsehood": 4336,
      "Tyrrel": 4337,
      "surely": 4338,
      "corre": 4339,
      "sovereignty": 4340,
      "slaves": 4341,
      "commons": 4342,
      "twain": 4343,
      "oaths": 4344,
      "faithful": 4345,
      "Cannot": 4346,
      "Commend": 4347,
      "growing": 4348,
      "heirs": 4349,
      "below": 4350,
      "Remember": 4351,
      "Caesar": 4352,
      "defence": 4353,
      "pression": 4354,
      "choly": 4355,
      "beholding": 4356,
      "augh": 4357,
      "stopp": 4358,
      "stomach": 4359,
      "pitch": 4360,
      "barren": 4361,
      "books": 4362,
      "proportion": 4363,
      "breathed": 4364,
      "mouths": 4365,
      "weakness": 4366,
      "virtues": 4367,
      "direction": 4368,
      "bridegroom": 4369,
      "image": 4370,
      "salt": 4371,
      "regal": 4372,
      "regard": 4373,
      "tremble": 4374,
      "gallant": 4375,
      "ifest": 4376,
      "occup": 4377,
      "beasts": 4378,
      "cords": 4379,
      "conceit": 4380,
      "entertainment": 4381,
      "substit": 4382,
      "Six": 4383,
      "fancy": 4384,
      "knaves": 4385,
      "tyranny": 4386,
      "Flor": 4387,
      "ballad": 4388,
      "provided": 4389,
      "renowned": 4390,
      "smell": 4391,
      "stabb": 4392,
      "conference": 4393,
      "penitent": 4394,
      "devotion": 4395,
      "complex": 4396,
      "dignity": 4397,
      "patricians": 4398,
      "determined": 4399,
      "Fourth": 4400,
      "Vienna": 4401,
      "deceit": 4402,
      "Milan": 4403,
      "Salisbury": 4404,
      "ceremon": 4405,
      "yoke": 4406,
      "rebellion": 4407,
      "Derby": 4408,
      "froward": 4409,
      "pilgri": 4410,
      "melancholy": 4411,
      "havior": 4412,
      "reconci": 4413,
      "betray": 4414,
      "appetite": 4415,
      ".--": 4416,
      "AD": 4417,
      "Cur": 4418,
      "Cry": 4419,
      "CLE": 4420,
      "County": 4421,
      "Each": 4422,
      "FRO": 4423,
      "Get": 4424,
      "Him": 4425,
      "IT": 4426,
      "Jes": 4427,
      "Lie": 4428,
      "Larti": 4429,
      "Min": 4430,
      "Many": 4431,
      "OMEN": 4432,
      "Qu": 4433,
      "RIAN": 4434,
      "Sit": 4435,
      "Sound": 4436,
      "Tush": 4437,
      "Time": 4438,
      "Tullus": 4439,
      "UGH": 4440,
      "Ven": 4441,
      "Vill": 4442,
      "Whe": 4443,
      "WIL": 4444,
      "ali": 4445,
      "apo": 4446,
      "bble": 4447,
      "bag": 4448,
      "bation": 4449,
      "block": 4450,
      "cas": 4451,
      "cue": 4452,
      "cul": 4453,
      "chaste": 4454,
      "cket": 4455,
      "fish": 4456,
      "fits": 4457,
      "goose": 4458,
      "iam": 4459,
      "ible": 4460,
      "len": 4461,
      "lain": 4462,
      "mood": 4463,
      "nes": 4464,
      "ope": 4465,
      "ola": 4466,
      "pill": 4467,
      "sple": 4468,
      "swain": 4469,
      "swore": 4470,
      "twill": 4471,
      "tard": 4472,
      "tles": 4473,
      "uce": 4474,
      "var": 4475,
      "wan": 4476,
      "wink": 4477,
      "whor": 4478,
      "thin": 4479,
      "infection": 4480,
      "anointed": 4481,
      "thecar": 4482,
      "ories": 4483,
      "ency": 4484,
      "enches": 4485,
      "arth": 4486,
      "arrow": 4487,
      "onation": 4488,
      "stumble": 4489,
      "mew": 4490,
      "memory": 4491,
      "toad": 4492,
      "toil": 4493,
      "andal": 4494,
      "nod": 4495,
      "sepul": 4496,
      "seldom": 4497,
      "rear": 4498,
      "requ": 4499,
      "reap": 4500,
      "reach": 4501,
      "repose": 4502,
      "removed": 4503,
      "retire": 4504,
      "itch": 4505,
      "belie": 4506,
      "league": 4507,
      "iron": 4508,
      "iring": 4509,
      "edge": 4510,
      "lier": 4511,
      "dec": 4512,
      "deaf": 4513,
      "decl": 4514,
      "dearest": 4515,
      "weal": 4516,
      "hated": 4517,
      "kest": 4518,
      "withdraw": 4519,
      "alo": 4520,
      "aly": 4521,
      "alms": 4522,
      "ushes": 4523,
      "soci": 4524,
      "dove": 4525,
      "uns": 4526,
      "uncles": 4527,
      "male": 4528,
      "pee": 4529,
      "pear": 4530,
      "feign": 4531,
      "felt": 4532,
      "lover": 4533,
      "manage": 4534,
      "manifest": 4535,
      "tiest": 4536,
      "shapes": 4537,
      "amity": 4538,
      "aments": 4539,
      "wills": 4540,
      "super": 4541,
      "suitor": 4542,
      "sullen": 4543,
      "concer": 4544,
      "Through": 4545,
      "moves": 4546,
      "seless": 4547,
      "ified": 4548,
      "illy": 4549,
      "bleeding": 4550,
      "ongst": 4551,
      "selfsame": 4552,
      "lovest": 4553,
      "perhaps": 4554,
      "comb": 4555,
      "compass": 4556,
      "cies": 4557,
      "foreign": 4558,
      "LOUGH": 4559,
      "proclam": 4560,
      "fierce": 4561,
      "tooth": 4562,
      "disgu": 4563,
      "disease": 4564,
      "dismal": 4565,
      "deaths": 4566,
      "estim": 4567,
      "vied": 4568,
      "marks": 4569,
      "acquaint": 4570,
      "heartily": 4571,
      "Behold": 4572,
      "stranger": 4573,
      "struction": 4574,
      "Off": 4575,
      "angling": 4576,
      "descent": 4577,
      "extrem": 4578,
      "babes": 4579,
      "imble": 4580,
      "lesser": 4581,
      "mischance": 4582,
      "abused": 4583,
      "absolute": 4584,
      "ement": 4585,
      "embra": 4586,
      "jot": 4587,
      "Italy": 4588,
      "greatness": 4589,
      "redress": 4590,
      "heavenly": 4591,
      "flat": 4592,
      "pable": 4593,
      "pause": 4594,
      "sweeter": 4595,
      "Anon": 4596,
      "coat": 4597,
      "warri": 4598,
      "restra": 4599,
      "graced": 4600,
      "scold": 4601,
      "settled": 4602,
      "household": 4603,
      "began": 4604,
      "cloud": 4605,
      "rights": 4606,
      "places": 4607,
      "angel": 4608,
      "bank": 4609,
      "Uncle": 4610,
      "purchase": 4611,
      "tains": 4612,
      "tainted": 4613,
      "dearly": 4614,
      "laws": 4615,
      "subtle": 4616,
      "William": 4617,
      "confir": 4618,
      "younger": 4619,
      "minds": 4620,
      "rank": 4621,
      "happily": 4622,
      "steeds": 4623,
      "buz": 4624,
      "bush": 4625,
      "garland": 4626,
      "sorrows": 4627,
      "monument": 4628,
      "griefs": 4629,
      "craves": 4630,
      "sleeping": 4631,
      "thankful": 4632,
      "accursed": 4633,
      "countrymen": 4634,
      "careless": 4635,
      "irect": 4636,
      "hangs": 4637,
      "windows": 4638,
      "beauteous": 4639,
      "yielded": 4640,
      "appeal": 4641,
      "trusty": 4642,
      "plainly": 4643,
      "visage": 4644,
      "Didst": 4645,
      "game": 4646,
      "gaze": 4647,
      "sights": 4648,
      "Mean": 4649,
      "stronger": 4650,
      "wooing": 4651,
      "object": 4652,
      "executed": 4653,
      "Hail": 4654,
      "burnt": 4655,
      "burning": 4656,
      "succeed": 4657,
      "fourteen": 4658,
      "whit": 4659,
      "Perdit": 4660,
      "burst": 4661,
      "writing": 4662,
      "satisfy": 4663,
      "frowns": 4664,
      "servants": 4665,
      "frail": 4666,
      "actions": 4667,
      "harsh": 4668,
      "changing": 4669,
      "trembling": 4670,
      "triumphant": 4671,
      "executioner": 4672,
      "mirth": 4673,
      "pierce": 4674,
      "bigger": 4675,
      "infant": 4676,
      "ignorance": 4677,
      "conceal": 4678,
      "scape": 4679,
      "uries": 4680,
      "shadows": 4681,
      "determine": 4682,
      "strokes": 4683,
      "supply": 4684,
      "Better": 4685,
      "avoided": 4686,
      "thirty": 4687,
      "shrewd": 4688,
      "prophet": 4689,
      "wager": 4690,
      "modesty": 4691,
      "wolf": 4692,
      "refuse": 4693,
      "eagle": 4694,
      "hungry": 4695,
      "axe": 4696,
      "famous": 4697,
      "neglect": 4698,
      "trespass": 4699,
      "pronounce": 4700,
      "Return": 4701,
      "furnish": 4702,
      "wondrous": 4703,
      "appointed": 4704,
      "stretch": 4705,
      "repeal": 4706,
      "adversaries": 4707,
      "privilege": 4708,
      "clothes": 4709,
      "Laur": 4710,
      "opposite": 4711,
      "Conspirator": 4712,
      "Bushy": 4713,
      "Follow": 4714,
      "Happy": 4715,
      "youngest": 4716,
      "remorse": 4717,
      "mystery": 4718,
      "policy": 4719,
      "exercise": 4720,
      "Mariana": 4721,
      "ADRIAN": 4722,
      "CLEOMEN": 4723,
      "FROTH": 4724,
      "Lartius": 4725,
      "Villain": 4726,
      "Whether": 4727,
      "WILLOUGH": 4728,
      "thecary": 4729,
      "sepulch": 4730,
      "extremity": 4731,
      "Perdita": 4732,
      "CLEOMENES": 4733,
      "WILLOUGHBY": 4734,
      "AM": 4735,
      "Bur": 4736,
      "BAR": 4737,
      "Cast": 4738,
      "Ely": 4739,
      "Escal": 4740,
      "Fal": 4741,
      "Find": 4742,
      "Full": 4743,
      "Ga": 4744,
      "Gu": 4745,
      "Gree": 4746,
      "Hap": 4747,
      "Hang": 4748,
      "MOR": 4749,
      "Making": 4750,
      "NARD": 4751,
      "Oh": 4752,
      "Old": 4753,
      "Pre": 4754,
      "Que": 4755,
      "RUT": 4756,
      "Sur": 4757,
      "Send": 4758,
      "Val": 4759,
      "Vaugh": 4760,
      "Wh": 4761,
      "Wr": 4762,
      "Wed": 4763,
      "Wil": 4764,
      "Wife": 4765,
      "Woe": 4766,
      "afe": 4767,
      "ables": 4768,
      "bere": 4769,
      "bate": 4770,
      "bio": 4771,
      "bore": 4772,
      "cers": 4773,
      "dess": 4774,
      "date": 4775,
      "ev": 4776,
      "fed": 4777,
      "fil": 4778,
      "freed": 4779,
      "gid": 4780,
      "hare": 4781,
      "hrew": 4782,
      "honey": 4783,
      "ient": 4784,
      "ict": 4785,
      "iving": 4786,
      "iety": 4787,
      "lon": 4788,
      "lur": 4789,
      "lance": 4790,
      "lower": 4791,
      "lengthen": 4792,
      "mould": 4793,
      "mil": 4794,
      "mate": 4795,
      "mish": 4796,
      "nut": 4797,
      "nup": 4798,
      "nice": 4799,
      "numb": 4800,
      "pu": 4801,
      "pom": 4802,
      "pate": 4803,
      "page": 4804,
      "pised": 4805,
      "rouse": 4806,
      "smo": 4807,
      "sings": 4808,
      "swer": 4809,
      "sought": 4810,
      "skill": 4811,
      "shot": 4812,
      "vive": 4813,
      "ws": 4814,
      "wal": 4815,
      "ware": 4816,
      "yon": 4817,
      "thre": 4818,
      "thirst": 4819,
      "thrown": 4820,
      "thie": 4821,
      "thick": 4822,
      "thinking": 4823,
      "thumb": 4824,
      "inte": 4825,
      "anch": 4826,
      "ansport": 4827,
      "ising": 4828,
      "isted": 4829,
      "arrest": 4830,
      "stic": 4831,
      "stick": 4832,
      "stale": 4833,
      "lling": 4834,
      "metal": 4835,
      "toy": 4836,
      "tomorrow": 4837,
      "heat": 4838,
      "heap": 4839,
      "heels": 4840,
      "essed": 4841,
      "nobility": 4842,
      "sey": 4843,
      "secre": 4844,
      "hall": 4845,
      "hail": 4846,
      "haught": 4847,
      "hazard": 4848,
      "recomp": 4849,
      "iter": 4850,
      "itude": 4851,
      "itiff": 4852,
      "befall": 4853,
      "behavior": 4854,
      "leg": 4855,
      "cel": 4856,
      "forty": 4857,
      "chat": 4858,
      "charm": 4859,
      "roses": 4860,
      "noted": 4861,
      "lig": 4862,
      "lied": 4863,
      "liking": 4864,
      "livery": 4865,
      "likes": 4866,
      "keley": 4867,
      "rible": 4868,
      "thern": 4869,
      "etch": 4870,
      "using": 4871,
      "INE": 4872,
      "soil": 4873,
      "raven": 4874,
      "rapier": 4875,
      "dogs": 4876,
      "dozen": 4877,
      "unate": 4878,
      "unken": 4879,
      "unfold": 4880,
      "peer": 4881,
      "load": 4882,
      "fawn": 4883,
      "ckle": 4884,
      "tie": 4885,
      "amb": 4886,
      "amiss": 4887,
      "nel": 4888,
      "neat": 4889,
      "butt": 4890,
      "suing": 4891,
      "sult": 4892,
      "suits": 4893,
      "herd": 4894,
      "term": 4895,
      "conceive": 4896,
      "omit": 4897,
      "lap": 4898,
      "shallow": 4899,
      "upright": 4900,
      "share": 4901,
      "shook": 4902,
      "shines": 4903,
      "trunk": 4904,
      "transport": 4905,
      "goods": 4906,
      "board": 4907,
      "boast": 4908,
      "iling": 4909,
      "ilence": 4910,
      "caps": 4911,
      "capable": 4912,
      "caitiff": 4913,
      "Fortune": 4914,
      "sav": 4915,
      "sacri": 4916,
      "aken": 4917,
      "sirs": 4918,
      "thereby": 4919,
      "worm": 4920,
      "perni": 4921,
      "ately": 4922,
      "proved": 4923,
      "process": 4924,
      "grain": 4925,
      "somewhat": 4926,
      "discourse": 4927,
      "dismiss": 4928,
      "spread": 4929,
      "sweat": 4930,
      "nable": 4931,
      "descend": 4932,
      "bru": 4933,
      "brown": 4934,
      "telling": 4935,
      "breed": 4936,
      "bread": 4937,
      "immortal": 4938,
      "whereon": 4939,
      "counted": 4940,
      "counsell": 4941,
      "looked": 4942,
      "voli": 4943,
      "vocate": 4944,
      "affords": 4945,
      "abuse": 4946,
      "tshire": 4947,
      "Whereto": 4948,
      "Wherefore": 4949,
      "bert": 4950,
      "fearing": 4951,
      "headed": 4952,
      "flu": 4953,
      "flourish": 4954,
      "Anne": 4955,
      "coll": 4956,
      "merch": 4957,
      "warn": 4958,
      "gress": 4959,
      "scatter": 4960,
      "prime": 4961,
      "price": 4962,
      "courteous": 4963,
      "putting": 4964,
      "tricks": 4965,
      "beget": 4966,
      "childish": 4967,
      "Does": 4968,
      "train": 4969,
      "mightst": 4970,
      "lightning": 4971,
      "madness": 4972,
      "tending": 4973,
      "bestow": 4974,
      "Prove": 4975,
      "bands": 4976,
      "fardel": 4977,
      "forthwith": 4978,
      "backs": 4979,
      "earthly": 4980,
      "challen": 4981,
      "minded": 4982,
      "quired": 4983,
      "falling": 4984,
      "drunken": 4985,
      "doub": 4986,
      "closed": 4987,
      "royalty": 4988,
      "senses": 4989,
      "senseless": 4990,
      "pick": 4991,
      "vered": 4992,
      "grew": 4993,
      "greed": 4994,
      "monster": 4995,
      "strive": 4996,
      "cram": 4997,
      "waves": 4998,
      "meddle": 4999,
      "coronation": 5000,
      "offices": 5001,
      "officers": 5002,
      "careful": 5003,
      "minute": 5004,
      "bitious": 5005,
      "spoil": 5006,
      "wanting": 5007,
      "breathing": 5008,
      "Shore": 5009,
      "commonwealth": 5010,
      "beaut": 5011,
      "Licio": 5012,
      "Although": 5013,
      "yields": 5014,
      "vision": 5015,
      "zeal": 5016,
      "IDAM": 5017,
      "sadness": 5018,
      "sooner": 5019,
      "Hadst": 5020,
      "Leont": 5021,
      "Whiles": 5022,
      "Green": 5023,
      "consort": 5024,
      "Cambio": 5025,
      "Cali": 5026,
      "learned": 5027,
      "suitors": 5028,
      "acts": 5029,
      "birds": 5030,
      "execute": 5031,
      "chosen": 5032,
      "burns": 5033,
      "icians": 5034,
      "prettiest": 5035,
      "knit": 5036,
      "pitied": 5037,
      "pitiful": 5038,
      "praises": 5039,
      "covert": 5040,
      "joints": 5041,
      "torch": 5042,
      "torney": 5043,
      "velvet": 5044,
      "burden": 5045,
      "liberal": 5046,
      "written": 5047,
      "blessing": 5048,
      "possession": 5049,
      "rupt": 5050,
      "mbers": 5051,
      "violence": 5052,
      "bitterly": 5053,
      "succession": 5054,
      "borrow": 5055,
      "censure": 5056,
      "midnight": 5057,
      "cherish": 5058,
      "goddess": 5059,
      "gnant": 5060,
      "churchyard": 5061,
      "grandsire": 5062,
      "frighted": 5063,
      "clamour": 5064,
      "guests": 5065,
      "injury": 5066,
      "substance": 5067,
      "months": 5068,
      "winged": 5069,
      "inclined": 5070,
      "shrift": 5071,
      "bottom": 5072,
      "necessity": 5073,
      "tyrann": 5074,
      "prevented": 5075,
      "Dido": 5076,
      "wander": 5077,
      "inherit": 5078,
      "statue": 5079,
      "limbs": 5080,
      "troops": 5081,
      "Elbow": 5082,
      "Grace": 5083,
      "steps": 5084,
      "weapon": 5085,
      "conjure": 5086,
      "shroud": 5087,
      "companion": 5088,
      "threatening": 5089,
      "depend": 5090,
      "ARCHIDAM": 5091,
      "figure": 5092,
      "Justice": 5093,
      "multit": 5094,
      "torture": 5095,
      "rebels": 5096,
      "appreh": 5097,
      "dispersed": 5098,
      "intelligence": 5099,
      "Berkeley": 5100,
      "Strike": 5101,
      "saints": 5102,
      "escape": 5103,
      "ruthless": 5104,
      "imagine": 5105,
      "afflict": 5106,
      "Another": 5107,
      "Courage": 5108,
      "Tribunes": 5109,
      "rejoice": 5110,
      "reputation": 5111,
      "likeness": 5112,
      "tapster": 5113,
      "character": 5114,
      "Jesu": 5115,
      "spleen": 5116,
      "whores": 5117,
      "peevish": 5118,
      "proclamation": 5119,
      "warriors": 5120,
      "confirm": 5121,
      "Laurence": 5122,
      "sepulchre": 5123,
      "BARNARD": 5124,
      "Escalus": 5125,
      "Queen": 5126,
      "RUTLAND": 5127,
      "Surrey": 5128,
      "Vaughan": 5129,
      "Wiltshire": 5130,
      "giddy": 5131,
      "recompen": 5132,
      "sacrifi": 5133,
      "pernicious": 5134,
      "challenge": 5135,
      "Leontes": 5136,
      "ARCHIDAMUS": 5137,
      "BARNARDINE": 5138,
      "Abo": 5139,
      "ATER": 5140,
      "Adie": 5141,
      "Ba": 5142,
      "BAN": 5143,
      "Cle": 5144,
      "CAR": 5145,
      "CRO": 5146,
      "Dian": 5147,
      "EP": 5148,
      "Ever": 5149,
      "Fit": 5150,
      "Five": 5151,
      "FIT": 5152,
      "GO": 5153,
      "Garden": 5154,
      "Hie": 5155,
      "Hic": 5156,
      "IR": 5157,
      "IBAN": 5158,
      "Ja": 5159,
      "Live": 5160,
      "Much": 5161,
      "Mars": 5162,
      "Na": 5163,
      "Neither": 5164,
      "Nature": 5165,
      "Pur": 5166,
      "Part": 5167,
      "Prep": 5168,
      "Raven": 5169,
      "Su": 5170,
      "Sus": 5171,
      "Sly": 5172,
      "Sta": 5173,
      "Sund": 5174,
      "Swear": 5175,
      "Saw": 5176,
      "SCRO": 5177,
      "SIR": 5178,
      "Ten": 5179,
      "TON": 5180,
      "Toward": 5181,
      "TMOR": 5182,
      "Vouch": 5183,
      "Virt": 5184,
      "Wom": 5185,
      "WES": 5186,
      "WATER": 5187,
      "Yield": 5188,
      "ZWATER": 5189,
      "amain": 5190,
      "bay": 5191,
      "bent": 5192,
      "blast": 5193,
      "blot": 5194,
      "bishop": 5195,
      "cook": 5196,
      "dan": 5197,
      "dst": 5198,
      "dal": 5199,
      "dried": 5200,
      "dash": 5201,
      "een": 5202,
      "eight": 5203,
      "egi": 5204,
      "fis": 5205,
      "farm": 5206,
      "fts": 5207,
      "fanta": 5208,
      "fray": 5209,
      "gam": 5210,
      "gers": 5211,
      "gap": 5212,
      "gund": 5213,
      "gic": 5214,
      "ians": 5215,
      "ired": 5216,
      "liness": 5217,
      "mp": 5218,
      "mat": 5219,
      "mers": 5220,
      "mates": 5221,
      "mask": 5222,
      "non": 5223,
      "narrow": 5224,
      "phi": 5225,
      "pts": 5226,
      "push": 5227,
      "rue": 5228,
      "ratch": 5229,
      "rush": 5230,
      "sess": 5231,
      "swo": 5232,
      "smother": 5233,
      "slight": 5234,
      "sides": 5235,
      "shop": 5236,
      "silly": 5237,
      "tou": 5238,
      "vine": 5239,
      "vul": 5240,
      "vast": 5241,
      "vity": 5242,
      "vass": 5243,
      "wks": 5244,
      "yest": 5245,
      "oured": 5246,
      "erved": 5247,
      "errand": 5248,
      "inch": 5249,
      "iners": 5250,
      "infer": 5251,
      "insol": 5252,
      "thest": 5253,
      "arg": 5254,
      "array": 5255,
      "attain": 5256,
      "attorney": 5257,
      "oned": 5258,
      "members": 5259,
      "token": 5260,
      "height": 5261,
      "severe": 5262,
      "search": 5263,
      "hamed": 5264,
      "revel": 5265,
      "retired": 5266,
      "ittle": 5267,
      "itation": 5268,
      "beef": 5269,
      "begot": 5270,
      "betide": 5271,
      "beams": 5272,
      "lewd": 5273,
      "wipe": 5274,
      "hions": 5275,
      "owes": 5276,
      "aspect": 5277,
      "ashes": 5278,
      "ashamed": 5279,
      "erest": 5280,
      "utch": 5281,
      "roo": 5282,
      "roof": 5283,
      "rope": 5284,
      "robes": 5285,
      "robb": 5286,
      "notice": 5287,
      "lick": 5288,
      "lions": 5289,
      "depose": 5290,
      "decre": 5291,
      "devour": 5292,
      "destruction": 5293,
      "wears": 5294,
      "week": 5295,
      "kets": 5296,
      "ourself": 5297,
      "entrance": 5298,
      "hist": 5299,
      "riel": 5300,
      "riches": 5301,
      "adul": 5302,
      "admir": 5303,
      "also": 5304,
      "allegi": 5305,
      "soms": 5306,
      "sophy": 5307,
      "rag": 5308,
      "raid": 5309,
      "rack": 5310,
      "ung": 5311,
      "unkindness": 5312,
      "hoar": 5313,
      "pel": 5314,
      "peach": 5315,
      "fever": 5316,
      "lovers": 5317,
      "loathe": 5318,
      "losophy": 5319,
      "idered": 5320,
      "verty": 5321,
      "fami": 5322,
      "favours": 5323,
      "shade": 5324,
      "amends": 5325,
      "amorous": 5326,
      "ambitious": 5327,
      "ainted": 5328,
      "supre": 5329,
      "herald": 5330,
      "conquest": 5331,
      "consequ": 5332,
      "constable": 5333,
      "prou": 5334,
      "Thine": 5335,
      "Things": 5336,
      "upid": 5337,
      "shown": 5338,
      "shining": 5339,
      "pot": 5340,
      "poverty": 5341,
      "trans": 5342,
      "ORGE": 5343,
      "moan": 5344,
      "bled": 5345,
      "blemish": 5346,
      "shel": 5347,
      "cab": 5348,
      "ulate": 5349,
      "sack": 5350,
      "saved": 5351,
      "knowing": 5352,
      "pers": 5353,
      "pery": 5354,
      "perience": 5355,
      "cture": 5356,
      "outrage": 5357,
      "ELY": 5358,
      "ELAND": 5359,
      "dia": 5360,
      "dig": 5361,
      "cially": 5362,
      "likewise": 5363,
      "speaking": 5364,
      "provide": 5365,
      "qua": 5366,
      "quainted": 5367,
      "plebe": 5368,
      "apace": 5369,
      "aved": 5370,
      "fiend": 5371,
      "discontent": 5372,
      "discre": 5373,
      "dissol": 5374,
      "discontented": 5375,
      "ount": 5376,
      "esteem": 5377,
      "marvel": 5378,
      "marvell": 5379,
      "takest": 5380,
      "plan": 5381,
      "swears": 5382,
      "acles": 5383,
      "acquainted": 5384,
      "Becomes": 5385,
      "Withdraw": 5386,
      "landed": 5387,
      "angers": 5388,
      "exped": 5389,
      "experience": 5390,
      "brat": 5391,
      "baw": 5392,
      "baby": 5393,
      "isement": 5394,
      "imper": 5395,
      "Comes": 5396,
      "afraid": 5397,
      "misfortune": 5398,
      "abund": 5399,
      "nights": 5400,
      "offences": 5401,
      "Whereof": 5402,
      "lief": 5403,
      "prefer": 5404,
      "cheap": 5405,
      "cheque": 5406,
      "partner": 5407,
      "livest": 5408,
      "undo": 5409,
      "flay": 5410,
      "pace": 5411,
      "sweetly": 5412,
      "cozen": 5413,
      "merc": 5414,
      "resem": 5415,
      "dame": 5416,
      "ulls": 5417,
      "grity": 5418,
      "scri": 5419,
      "scandal": 5420,
      "scratch": 5421,
      "worldly": 5422,
      "downright": 5423,
      "presume": 5424,
      "holding": 5425,
      "courtier": 5426,
      "pute": 5427,
      "trim": 5428,
      "BAGO": 5429,
      "travell": 5430,
      "stays": 5431,
      "bidding": 5432,
      "brains": 5433,
      "parents": 5434,
      "parties": 5435,
      "STEP": 5436,
      "Shalt": 5437,
      "purge": 5438,
      "purple": 5439,
      "helps": 5440,
      "dearer": 5441,
      "couldst": 5442,
      "hopeful": 5443,
      "confound": 5444,
      "drew": 5445,
      "homely": 5446,
      "falls": 5447,
      "steed": 5448,
      "reply": 5449,
      "bud": 5450,
      "temples": 5451,
      "busy": 5452,
      "carries": 5453,
      "bridal": 5454,
      "compli": 5455,
      "compound": 5456,
      "falcon": 5457,
      "CALIBAN": 5458,
      "monarch": 5459,
      "petty": 5460,
      "turned": 5461,
      "eldest": 5462,
      "contents": 5463,
      "sounds": 5464,
      "sounded": 5465,
      "wax": 5466,
      "balm": 5467,
      "ventry": 5468,
      "straw": 5469,
      "revenges": 5470,
      "spot": 5471,
      "readiness": 5472,
      "villains": 5473,
      "kisses": 5474,
      "lately": 5475,
      "creant": 5476,
      "Conf": 5477,
      "Content": 5478,
      "winters": 5479,
      "beats": 5480,
      "beaten": 5481,
      "Canst": 5482,
      "lambs": 5483,
      "Comfort": 5484,
      "considered": 5485,
      "Methought": 5486,
      "wisely": 5487,
      "devilish": 5488,
      "entreaties": 5489,
      "boldly": 5490,
      "boldness": 5491,
      "defy": 5492,
      "crush": 5493,
      "folks": 5494,
      "bowels": 5495,
      "youthful": 5496,
      "Captain": 5497,
      "musicians": 5498,
      "droop": 5499,
      "testim": 5500,
      "signal": 5501,
      "signify": 5502,
      "Welsh": 5503,
      "flattering": 5504,
      "tempted": 5505,
      "cheerly": 5506,
      "grieves": 5507,
      "grieved": 5508,
      "Persu": 5509,
      "Perhaps": 5510,
      "divor": 5511,
      "satisfaction": 5512,
      "interchange": 5513,
      "framed": 5514,
      "towns": 5515,
      "darkness": 5516,
      "hurl": 5517,
      "Trust": 5518,
      "imagin": 5519,
      "suddenly": 5520,
      "cloudy": 5521,
      "cowardly": 5522,
      "eaten": 5523,
      "seated": 5524,
      "lamentable": 5525,
      "fondly": 5526,
      "kinsmen": 5527,
      "approbation": 5528,
      "middle": 5529,
      "storms": 5530,
      "departure": 5531,
      "mildly": 5532,
      "mildness": 5533,
      "gladly": 5534,
      "greeting": 5535,
      "reckon": 5536,
      "treasons": 5537,
      "piercing": 5538,
      "troubled": 5539,
      "Blunt": 5540,
      "evils": 5541,
      "fingers": 5542,
      "mutinous": 5543,
      "condemned": 5544,
      "grandam": 5545,
      "sentenced": 5546,
      "usurping": 5547,
      "Verily": 5548,
      "stops": 5549,
      "spurgh": 5550,
      "mount": 5551,
      "bastards": 5552,
      "neighbours": 5553,
      "EXTON": 5554,
      "seized": 5555,
      "amongst": 5556,
      "ministers": 5557,
      "conclude": 5558,
      "GEORGE": 5559,
      "frank": 5560,
      "gifts": 5561,
      "ghostly": 5562,
      "Antigon": 5563,
      "keys": 5564,
      "designs": 5565,
      "wandering": 5566,
      "lodged": 5567,
      "persuade": 5568,
      "branch": 5569,
      "preserve": 5570,
      "physic": 5571,
      "Else": 5572,
      "eleven": 5573,
      "shoes": 5574,
      "tutor": 5575,
      "vanity": 5576,
      "weapons": 5577,
      "sufficient": 5578,
      "accusation": 5579,
      "corrupt": 5580,
      "frost": 5581,
      "comfortable": 5582,
      "Patience": 5583,
      "lists": 5584,
      "instantly": 5585,
      "stolen": 5586,
      "revolt": 5587,
      "complaint": 5588,
      "Coventry": 5589,
      "nobleness": 5590,
      "provoked": 5591,
      "example": 5592,
      "heavier": 5593,
      "profane": 5594,
      "circumstance": 5595,
      "Appear": 5596,
      "Benvoli": 5597,
      "LISLE": 5598,
      "couple": 5599,
      "function": 5600,
      "incensed": 5601,
      "occupation": 5602,
      "substitute": 5603,
      "complexion": 5604,
      "pilgrimage": 5605,
      "reconcile": 5606,
      "Curtis": 5607,
      "Minola": 5608,
      "Venice": 5609,
      "nesday": 5610,
      "believed": 5611,
      "feigned": 5612,
      "estimation": 5613,
      "Burgund": 5614,
      "False": 5615,
      "Gaoler": 5616,
      "Wednesday": 5617,
      "freedom": 5618,
      "nuptial": 5619,
      "pomp": 5620,
      "thieves": 5621,
      "integrity": 5622,
      "savage": 5623,
      "merchant": 5624,
      "Caliban": 5625,
      "tyrannous": 5626,
      "recompense": 5627,
      "Above": 5628,
      "Adieu": 5629,
      "Bagot": 5630,
      "CARLISLE": 5631,
      "FITZWATER": 5632,
      "Gardener": 5633,
      "Name": 5634,
      "Prepare": 5635,
      "Ravenspurgh": 5636,
      "Sunday": 5637,
      "SCROOP": 5638,
      "Towards": 5639,
      "TMORELAND": 5640,
      "Vouchsafe": 5641,
      "Women": 5642,
      "WESTMORELAND": 5643,
      "philosophy": 5644,
      "adulter": 5645,
      "allegiance": 5646,
      "BAGOT": 5647,
      "STEPHEN": 5648,
      "Antigonus": 5649,
      "Benvolio": 5650,
      "Burgundy": 5651,
      "Ariel": 5652,
      "Bound": 5653,
      "Best": 5654,
      "Bold": 5655,
      "Bel": 5656,
      "Bishop": 5657,
      "Che": 5658,
      "Cut": 5659,
      "Conce": 5660,
      "Carth": 5661,
      "Cupid": 5662,
      "Da": 5663,
      "Dest": 5664,
      "Del": 5665,
      "Er": 5666,
      "Fall": 5667,
      "Fill": 5668,
      "Foul": 5669,
      "Fetch": 5670,
      "Gives": 5671,
      "Jup": 5672,
      "Kent": 5673,
      "Kill": 5674,
      "Kind": 5675,
      "Lend": 5676,
      "Lies": 5677,
      "Murder": 5678,
      "Ned": 5679,
      "Nep": 5680,
      "Obe": 5681,
      "Over": 5682,
      "Pem": 5683,
      "Red": 5684,
      "Rel": 5685,
      "Sm": 5686,
      "Sy": 5687,
      "Sor": 5688,
      "Str": 5689,
      "Sic": 5690,
      "Scot": 5691,
      "Tur": 5692,
      "Tun": 5693,
      "Troy": 5694,
      "Touch": 5695,
      "Twixt": 5696,
      "Talk": 5697,
      "Twice": 5698,
      "Truly": 5699,
      "Wer": 5700,
      "Walter": 5701,
      "Zounds": 5702,
      "ape": 5703,
      "aves": 5704,
      "bul": 5705,
      "bune": 5706,
      "bene": 5707,
      "bows": 5708,
      "bench": 5709,
      "bounty": 5710,
      "cu": 5711,
      "cis": 5712,
      "cand": 5713,
      "cta": 5714,
      "cence": 5715,
      "crest": 5716,
      "cats": 5717,
      "dine": 5718,
      "dined": 5719,
      "ell": 5720,
      "eves": 5721,
      "efest": 5722,
      "fin": 5723,
      "fron": 5724,
      "fume": 5725,
      "gust": 5726,
      "gory": 5727,
      "hound": 5728,
      "hounds": 5729,
      "ivant": 5730,
      "icles": 5731,
      "kites": 5732,
      "lin": 5733,
      "lute": 5734,
      "ming": 5735,
      "mom": 5736,
      "mouse": 5737,
      "nic": 5738,
      "nigh": 5739,
      "nimble": 5740,
      "os": 5741,
      "pan": 5742,
      "phe": 5743,
      "pow": 5744,
      "pir": 5745,
      "pour": 5746,
      "ply": 5747,
      "pence": 5748,
      "pular": 5749,
      "rat": 5750,
      "rhe": 5751,
      "rish": 5752,
      "rist": 5753,
      "rushes": 5754,
      "sow": 5755,
      "soo": 5756,
      "ssi": 5757,
      "twould": 5758,
      "tany": 5759,
      "torn": 5760,
      "tered": 5761,
      "ually": 5762,
      "uced": 5763,
      "vou": 5764,
      "vance": 5765,
      "wre": 5766,
      "wart": 5767,
      "yare": 5768,
      "zing": 5769,
      "zel": 5770,
      "thood": 5771,
      "ero": 5772,
      "inu": 5773,
      "inward": 5774,
      "inces": 5775,
      "inies": 5776,
      "invent": 5777,
      "injustice": 5778,
      "inquire": 5779,
      "insult": 5780,
      "theme": 5781,
      "ored": 5782,
      "orator": 5783,
      "istr": 5784,
      "isting": 5785,
      "enrich": 5786,
      "enforced": 5787,
      "arise": 5788,
      "arning": 5789,
      "ato": 5790,
      "stin": 5791,
      "start": 5792,
      "stag": 5793,
      "stark": 5794,
      "stiff": 5795,
      "lled": 5796,
      "meth": 5797,
      "meed": 5798,
      "meal": 5799,
      "methought": 5800,
      "toe": 5801,
      "tops": 5802,
      "toads": 5803,
      "andon": 5804,
      "heth": 5805,
      "heal": 5806,
      "heel": 5807,
      "heinous": 5808,
      "nock": 5809,
      "separ": 5810,
      "hag": 5811,
      "reb": 5812,
      "rein": 5813,
      "redem": 5814,
      "requit": 5815,
      "require": 5816,
      "revive": 5817,
      "recreant": 5818,
      "veil": 5819,
      "itable": 5820,
      "ittany": 5821,
      "belong": 5822,
      "leap": 5823,
      "leful": 5824,
      "level": 5825,
      "learning": 5826,
      "wield": 5827,
      "hild": 5828,
      "cels": 5829,
      "forgiven": 5830,
      "forsooth": 5831,
      "asking": 5832,
      "asant": 5833,
      "assem": 5834,
      "chers": 5835,
      "chol": 5836,
      "chose": 5837,
      "chances": 5838,
      "utmost": 5839,
      "ross": 5840,
      "roaring": 5841,
      "liver": 5842,
      "lihood": 5843,
      "deer": 5844,
      "deceive": 5845,
      "wet": 5846,
      "rig": 5847,
      "rice": 5848,
      "ripen": 5849,
      "advocate": 5850,
      "ales": 5851,
      "aloud": 5852,
      "allay": 5853,
      "allies": 5854,
      "uring": 5855,
      "usual": 5856,
      "race": 5857,
      "rails": 5858,
      "rages": 5859,
      "uned": 5860,
      "unlook": 5861,
      "unseen": 5862,
      "unworthy": 5863,
      "unwilling": 5864,
      "unluck": 5865,
      "unruly": 5866,
      "hole": 5867,
      "maker": 5868,
      "pearl": 5869,
      "peian": 5870,
      "lodge": 5871,
      "herein": 5872,
      "manly": 5873,
      "manhood": 5874,
      "tiger": 5875,
      "shapen": 5876,
      "ami": 5877,
      "butter": 5878,
      "suivant": 5879,
      "ards": 5880,
      "heres": 5881,
      "herds": 5882,
      "terr": 5883,
      "conspir": 5884,
      "prate": 5885,
      "prise": 5886,
      "prating": 5887,
      "Throw": 5888,
      "endured": 5889,
      "moral": 5890,
      "upper": 5891,
      "shar": 5892,
      "shout": 5893,
      "shru": 5894,
      "postern": 5895,
      "popular": 5896,
      "tack": 5897,
      "taunts": 5898,
      "trow": 5899,
      "whatsoever": 5900,
      "ousins": 5901,
      "moe": 5902,
      "moving": 5903,
      "model": 5904,
      "moiety": 5905,
      "teth": 5906,
      "gossi": 5907,
      "boister": 5908,
      "bosoms": 5909,
      "sheathe": 5910,
      "shearing": 5911,
      "capit": 5912,
      "causes": 5913,
      "blue": 5914,
      "blance": 5915,
      "bliss": 5916,
      "sacra": 5917,
      "thereto": 5918,
      "worser": 5919,
      "worms": 5920,
      "canop": 5921,
      "perfection": 5922,
      "permit": 5923,
      "ctor": 5924,
      "ived": 5925,
      "combat": 5926,
      "compassion": 5927,
      "seeks": 5928,
      "diest": 5929,
      "forehead": 5930,
      "agre": 5931,
      "eping": 5932,
      "earn": 5933,
      "likelihood": 5934,
      "spect": 5935,
      "specta": 5936,
      "broo": 5937,
      "procure": 5938,
      "West": 5939,
      "quis": 5940,
      "quake": 5941,
      "Heart": 5942,
      "mustard": 5943,
      "graces": 5944,
      "apart": 5945,
      "shoulders": 5946,
      "fiance": 5947,
      "ignoble": 5948,
      "distress": 5949,
      "discharge": 5950,
      "displeasure": 5951,
      "distur": 5952,
      "spa": 5953,
      "split": 5954,
      "spark": 5955,
      "spider": 5956,
      "Intend": 5957,
      "vial": 5958,
      "marshal": 5959,
      "plate": 5960,
      "nail": 5961,
      "nails": 5962,
      "ABRA": 5963,
      "despised": 5964,
      "exceed": 5965,
      "except": 5966,
      "brotherhood": 5967,
      "brand": 5968,
      "bald": 5969,
      "eyed": 5970,
      "breeding": 5971,
      "otherwise": 5972,
      "impeach": 5973,
      "chiefest": 5974,
      "mischief": 5975,
      "nighting": 5976,
      "chest": 5977,
      "named": 5978,
      "serious": 5979,
      "serpent": 5980,
      "fox": 5981,
      "everlasting": 5982,
      "prays": 5983,
      "sweetest": 5984,
      "fortunate": 5985,
      "Anton": 5986,
      "Answer": 5987,
      "coast": 5988,
      "ize": 5989,
      "northern": 5990,
      "resist": 5991,
      "pped": 5992,
      "wares": 5993,
      "commends": 5994,
      "grate": 5995,
      "grass": 5996,
      "intents": 5997,
      "rests": 5998,
      "wring": 5999,
      "scour": 6000,
      "downfall": 6001,
      "ornaments": 6002,
      "Thank": 6003,
      "mothers": 6004,
      "courts": 6005,
      "courses": 6006,
      "oppression": 6007,
      "tried": 6008,
      "trifles": 6009,
      "tribune": 6010,
      "cler": 6011,
      "friendship": 6012,
      "attern": 6013,
      "lights": 6014,
      "insinu": 6015,
      "grim": 6016,
      "angels": 6017,
      "talking": 6018,
      "gued": 6019,
      "Proclaim": 6020,
      "Prosper": 6021,
      "henceforth": 6022,
      "tents": 6023,
      "Shame": 6024,
      "pursue": 6025,
      "pursuit": 6026,
      "keeping": 6027,
      "charges": 6028,
      "dearth": 6029,
      "meaner": 6030,
      "Thyself": 6031,
      "beside": 6032,
      "confidence": 6033,
      "confeder": 6034,
      "champ": 6035,
      "throng": 6036,
      "getting": 6037,
      "ransom": 6038,
      "afterward": 6039,
      "clean": 6040,
      "fallen": 6041,
      "steep": 6042,
      "steward": 6043,
      "drinking": 6044,
      "patron": 6045,
      "temple": 6046,
      "tempor": 6047,
      "cloak": 6048,
      "dram": 6049,
      "dragon": 6050,
      "bric": 6051,
      "compare": 6052,
      "royalties": 6053,
      "sensible": 6054,
      "wronged": 6055,
      "pilot": 6056,
      "tingu": 6057,
      "thousands": 6058,
      "strife": 6059,
      "strict": 6060,
      "crab": 6061,
      "poses": 6062,
      "waits": 6063,
      "accustom": 6064,
      "reasonable": 6065,
      "corax": 6066,
      "minutes": 6067,
      "revenue": 6068,
      "hangman": 6069,
      "window": 6070,
      "commands": 6071,
      "Teach": 6072,
      "Tewks": 6073,
      "doubtful": 6074,
      "humility": 6075,
      "Alban": 6076,
      "crept": 6077,
      "yielding": 6078,
      "Cons": 6079,
      "delicate": 6080,
      "appears": 6081,
      "smiling": 6082,
      "Sometime": 6083,
      "breaks": 6084,
      "battles": 6085,
      "sitting": 6086,
      "persons": 6087,
      "tenderness": 6088,
      "gather": 6089,
      "gaunt": 6090,
      "watery": 6091,
      "destiny": 6092,
      "reported": 6093,
      "singular": 6094,
      "sadly": 6095,
      "Commit": 6096,
      "Command": 6097,
      "growth": 6098,
      "runs": 6099,
      "Lead": 6100,
      "silk": 6101,
      "crying": 6102,
      "Read": 6103,
      "Ready": 6104,
      "devils": 6105,
      "entreaty": 6106,
      "Montagues": 6107,
      "suppose": 6108,
      "quarter": 6109,
      "calamity": 6110,
      "revengeful": 6111,
      "bowl": 6112,
      "speedy": 6113,
      "confessor": 6114,
      "confession": 6115,
      "damnable": 6116,
      "pedlar": 6117,
      "leaden": 6118,
      "harmony": 6119,
      "musician": 6120,
      "murderous": 6121,
      "hesy": 6122,
      "surfeit": 6123,
      "bella": 6124,
      "Char": 6125,
      "Christ": 6126,
      "dukes": 6127,
      "wonderful": 6128,
      "attended": 6129,
      "stocks": 6130,
      "safely": 6131,
      "safeguard": 6132,
      "Volscians": 6133,
      "Volscian": 6134,
      "flatterers": 6135,
      "lads": 6136,
      "rising": 6137,
      "wedded": 6138,
      "prophesy": 6139,
      "suffering": 6140,
      "sufferance": 6141,
      "breasts": 6142,
      "knocks": 6143,
      "springs": 6144,
      "creation": 6145,
      "hinder": 6146,
      "feasts": 6147,
      "troubl": 6148,
      "blade": 6149,
      "blaze": 6150,
      "visitation": 6151,
      "Isabella": 6152,
      "Mistake": 6153,
      "harbour": 6154,
      "harvest": 6155,
      "acknow": 6156,
      "easily": 6157,
      "Stands": 6158,
      "lamentation": 6159,
      "approved": 6160,
      "lowly": 6161,
      "midst": 6162,
      "midwife": 6163,
      "smallest": 6164,
      "innocence": 6165,
      "lected": 6166,
      "proceedings": 6167,
      "climate": 6168,
      "dared": 6169,
      "reigns": 6170,
      "eternal": 6171,
      "grandfather": 6172,
      "leaving": 6173,
      "prosperity": 6174,
      "spurs": 6175,
      "plants": 6176,
      "glasses": 6177,
      "slanderous": 6178,
      "mountain": 6179,
      "Capulets": 6180,
      "portion": 6181,
      "bending": 6182,
      "support": 6183,
      "sixteen": 6184,
      "loyalty": 6185,
      "prophecy": 6186,
      "loose": 6187,
      "stooping": 6188,
      "conclusion": 6189,
      "extremes": 6190,
      "drift": 6191,
      "franch": 6192,
      "frantic": 6193,
      "pinch": 6194,
      "blushing": 6195,
      "Antium": 6196,
      "eager": 6197,
      "loathsome": 6198,
      "aims": 6199,
      "crows": 6200,
      "slily": 6201,
      "statutes": 6202,
      "lodging": 6203,
      "disgraced": 6204,
      "branches": 6205,
      "guiltless": 6206,
      "Brittany": 6207,
      "fleet": 6208,
      "shrink": 6209,
      "cracking": 6210,
      "corruption": 6211,
      "conqueror": 6212,
      "frozen": 6213,
      "infected": 6214,
      "ARCHBISHOP": 6215,
      "advanced": 6216,
      "Patri": 6217,
      "Suppose": 6218,
      "medic": 6219,
      "magistr": 6220,
      "Break": 6221,
      "Fellow": 6222,
      "fifteen": 6223,
      "lunatic": 6224,
      "render": 6225,
      "swelling": 6226,
      "adverse": 6227,
      "advertis": 6228,
      "perjured": 6229,
      "abhorr": 6230,
      "beggars": 6231,
      "whispering": 6232,
      "murders": 6233,
      "murdered": 6234,
      "Tarpeian": 6235,
      "buckle": 6236,
      "ctious": 6237,
      "councils": 6238,
      "wrinkled": 6239,
      "tribute": 6240,
      "beseeming": 6241,
      "correction": 6242,
      "ceremonious": 6243,
      "Lieutenant": 6244,
      "lenity": 6245,
      "moody": 6246,
      "tardy": 6247,
      "varlet": 6248,
      "decay": 6249,
      "concerns": 6250,
      "afeard": 6251,
      "bereft": 6252,
      "milk": 6253,
      "numbers": 6254,
      "puiss": 6255,
      "anchor": 6256,
      "secrets": 6257,
      "ligence": 6258,
      "counsellor": 6259,
      "multitude": 6260,
      "whoreson": 6261,
      "Virtue": 6262,
      "dancing": 6263,
      "fantastic": 6264,
      "yester": 6265,
      "history": 6266,
      "loathed": 6267,
      "familiar": 6268,
      "consequence": 6269,
      "proudest": 6270,
      "cabin": 6271,
      "plebeians": 6272,
      "marvellous": 6273,
      "Confess": 6274,
      "imagination": 6275,
      "Carthage": 6276,
      "Jupiter": 6277,
      "Neptune": 6278,
      "Pembroke": 6279,
      "Sycorax": 6280,
      "Scotland": 6281,
      "Tunis": 6282,
      "Wert": 6283,
      "moment": 6284,
      "redemption": 6285,
      "boisterous": 6286,
      "sacrament": 6287,
      "disturb": 6288,
      "ABRAHAM": 6289,
      "Antonio": 6290,
      "Tewksbury": 6291,
      "Again": 6292,
      "Ban": 6293,
      "Bad": 6294,
      "BON": 6295,
      "Bless": 6296,
      "Back": 6297,
      "Cy": 6298,
      "Cal": 6299,
      "Cher": 6300,
      "Cold": 6301,
      "Cond": 6302,
      "Carry": 6303,
      "Cursed": 6304,
      "Du": 6305,
      "Dou": 6306,
      "Den": 6307,
      "Dro": 6308,
      "Dare": 6309,
      "DION": 6310,
      "Darest": 6311,
      "Direct": 6312,
      "Em": 6313,
      "End": 6314,
      "Eli": 6315,
      "Every": 6316,
      "Emi": 6317,
      "EMIL": 6318,
      "Fer": 6319,
      "Fly": 6320,
      "Fif": 6321,
      "Fran": 6322,
      "Gri": 6323,
      "Gain": 6324,
      "Groom": 6325,
      "Grand": 6326,
      "Hun": 6327,
      "Host": 6328,
      "Honest": 6329,
      "High": 6330,
      "Harp": 6331,
      "Ill": 6332,
      "Jer": 6333,
      "Jud": 6334,
      "Knock": 6335,
      "Lam": 6336,
      "Lef": 6337,
      "Mast": 6338,
      "Ni": 6339,
      "Near": 6340,
      "NATH": 6341,
      "Open": 6342,
      "Pha": 6343,
      "Pho": 6344,
      "Pla": 6345,
      "Pres": 6346,
      "Ren": 6347,
      "Run": 6348,
      "Rest": 6349,
      "SU": 6350,
      "Sin": 6351,
      "Ste": 6352,
      "Smile": 6353,
      "Sub": 6354,
      "Tw": 6355,
      "Tra": 6356,
      "Twill": 6357,
      "Ur": 6358,
      "Wit": 6359,
      "Wales": 6360,
      "ais": 6361,
      "abe": 6362,
      "awe": 6363,
      "afore": 6364,
      "bi": 6365,
      "bone": 6366,
      "bind": 6367,
      "bout": 6368,
      "boun": 6369,
      "bac": 6370,
      "bought": 6371,
      "card": 6372,
      "cund": 6373,
      "cation": 6374,
      "cuck": 6375,
      "ctive": 6376,
      "camp": 6377,
      "curious": 6378,
      "ckets": 6379,
      "cousins": 6380,
      "dun": 6381,
      "dart": 6382,
      "drow": 6383,
      "dity": 6384,
      "dru": 6385,
      "dling": 6386,
      "dumb": 6387,
      "dangers": 6388,
      "elo": 6389,
      "ege": 6390,
      "eous": 6391,
      "ect": 6392,
      "eks": 6393,
      "ebus": 6394,
      "eches": 6395,
      "ebb": 6396,
      "fty": 6397,
      "flock": 6398,
      "gay": 6399,
      "gul": 6400,
      "gloves": 6401,
      "ggest": 6402,
      "gasp": 6403,
      "gative": 6404,
      "hook": 6405,
      "iven": 6406,
      "iel": 6407,
      "ival": 6408,
      "ju": 6409,
      "jade": 6410,
      "lou": 6411,
      "lous": 6412,
      "link": 6413,
      "lful": 6414,
      "lends": 6415,
      "leness": 6416,
      "mum": 6417,
      "mpt": 6418,
      "mph": 6419,
      "miles": 6420,
      "muff": 6421,
      "mongst": 6422,
      "nie": 6423,
      "nourish": 6424,
      "otion": 6425,
      "pere": 6426,
      "pho": 6427,
      "pter": 6428,
      "pine": 6429,
      "pant": 6430,
      "pull": 6431,
      "plight": 6432,
      "pud": 6433,
      "paint": 6434,
      "pounds": 6435,
      "puff": 6436,
      "pattern": 6437,
      "rats": 6438,
      "rites": 6439,
      "sine": 6440,
      "squ": 6441,
      "sith": 6442,
      "slack": 6443,
      "schol": 6444,
      "tink": 6445,
      "tance": 6446,
      "treat": 6447,
      "tling": 6448,
      "tumble": 6449,
      "uge": 6450,
      "uous": 6451,
      "ucy": 6452,
      "ubs": 6453,
      "umes": 6454,
      "vig": 6455,
      "vation": 6456,
      "viness": 6457,
      "wave": 6458,
      "whelm": 6459,
      "wenches": 6460,
      "waken": 6461,
      "zy": 6462,
      "zz": 6463,
      "zon": 6464,
      "zes": 6465,
      "zement": 6466,
      "zabe": 6467,
      "thom": 6468,
      "thres": 6469,
      "thwa": 6470,
      "thwart": 6471,
      "error": 6472,
      "inv": 6473,
      "iner": 6474,
      "inve": 6475,
      "ination": 6476,
      "inconstant": 6477,
      "inhabit": 6478,
      "ank": 6479,
      "ann": 6480,
      "anks": 6481,
      "ancy": 6482,
      "antic": 6483,
      "aniel": 6484,
      "thed": 6485,
      "ores": 6486,
      "orch": 6487,
      "orph": 6488,
      "isome": 6489,
      "issued": 6490,
      "ening": 6491,
      "ared": 6492,
      "argo": 6493,
      "arum": 6494,
      "armed": 6495,
      "arbit": 6496,
      "attent": 6497,
      "sti": 6498,
      "stall": 6499,
      "sters": 6500,
      "stem": 6501,
      "strel": 6502,
      "stinking": 6503,
      "staff": 6504,
      "llies": 6505,
      "mete": 6506,
      "mellow": 6507,
      "tower": 6508,
      "topher": 6509,
      "ander": 6510,
      "heigh": 6511,
      "noses": 6512,
      "sex": 6513,
      "seth": 6514,
      "seed": 6515,
      "halt": 6516,
      "haunt": 6517,
      "hazel": 6518,
      "repri": 6519,
      "recover": 6520,
      "repossess": 6521,
      "reproof": 6522,
      "required": 6523,
      "ingrate": 6524,
      "beet": 6525,
      "befal": 6526,
      "beads": 6527,
      "befits": 6528,
      "beware": 6529,
      "levy": 6530,
      "levied": 6531,
      "wilful": 6532,
      "forces": 6533,
      "formed": 6534,
      "forsake": 6535,
      "fornic": 6536,
      "asy": 6537,
      "asures": 6538,
      "chop": 6539,
      "rode": 6540,
      "rocks": 6541,
      "notes": 6542,
      "notwith": 6543,
      "notorious": 6544,
      "liqu": 6545,
      "ligent": 6546,
      "degre": 6547,
      "device": 6548,
      "deform": 6549,
      "deeper": 6550,
      "debase": 6551,
      "decease": 6552,
      "weed": 6553,
      "western": 6554,
      "hatch": 6555,
      "ently": 6556,
      "entire": 6557,
      "entrails": 6558,
      "rion": 6559,
      "rial": 6560,
      "rivers": 6561,
      "rival": 6562,
      "adise": 6563,
      "admi": 6564,
      "alty": 6565,
      "altogether": 6566,
      "alarum": 6567,
      "etition": 6568,
      "allel": 6569,
      "ghts": 6570,
      "solic": 6571,
      "ram": 6572,
      "raging": 6573,
      "raiment": 6574,
      "ordin": 6575,
      "doves": 6576,
      "dowick": 6577,
      "doors": 6578,
      "domin": 6579,
      "doms": 6580,
      "unity": 6581,
      "unborn": 6582,
      "uncertain": 6583,
      "unlawful": 6584,
      "unfeigned": 6585,
      "holi": 6586,
      "hoped": 6587,
      "homage": 6588,
      "feat": 6589,
      "feits": 6590,
      "feeding": 6591,
      "female": 6592,
      "areth": 6593,
      "loins": 6594,
      "idly": 6595,
      "iders": 6596,
      "verse": 6597,
      "vering": 6598,
      "vernor": 6599,
      "fathom": 6600,
      "mang": 6601,
      "mantle": 6602,
      "shades": 6603,
      "shaped": 6604,
      "amend": 6605,
      "neath": 6606,
      "geld": 6607,
      "sul": 6608,
      "sugar": 6609,
      "sunder": 6610,
      "suggest": 6611,
      "herbs": 6612,
      "tering": 6613,
      "terrible": 6614,
      "conge": 6615,
      "contri": 6616,
      "contem": 6617,
      "pry": 6618,
      "print": 6619,
      "prunes": 6620,
      "prero": 6621,
      "ender": 6622,
      "omenes": 6623,
      "morous": 6624,
      "shower": 6625,
      "pox": 6626,
      "potent": 6627,
      "pocket": 6628,
      "ANIEL": 6629,
      "tag": 6630,
      "tax": 6631,
      "tach": 6632,
      "tamed": 6633,
      "trench": 6634,
      "trades": 6635,
      "whate": 6636,
      "moder": 6637,
      "governor": 6638,
      "hension": 6639,
      "bleed": 6640,
      "bleeds": 6641,
      "Whate": 6642,
      "wasp": 6643,
      "box": 6644,
      "boon": 6645,
      "bodes": 6646,
      "bolt": 6647,
      "venient": 6648,
      "sheet": 6649,
      "cave": 6650,
      "capar": 6651,
      "ulous": 6652,
      "blish": 6653,
      "blister": 6654,
      "Fore": 6655,
      "Forth": 6656,
      "Forgive": 6657,
      "Forbear": 6658,
      "sap": 6659,
      "sage": 6660,
      "safer": 6661,
      "savour": 6662,
      "saucy": 6663,
      "indiffer": 6664,
      "indirect": 6665,
      "canker": 6666,
      "perd": 6667,
      "ively": 6668,
      "commo": 6669,
      "composition": 6670,
      "sayest": 6671,
      "diet": 6672,
      "dict": 6673,
      "dience": 6674,
      "digest": 6675,
      "divide": 6676,
      "division": 6677,
      "cipl": 6678,
      "forest": 6679,
      "agate": 6680,
      "agreed": 6681,
      "earl": 6682,
      "earldom": 6683,
      "spear": 6684,
      "Gold": 6685,
      "broach": 6686,
      "umps": 6687,
      "umny": 6688,
      "wayward": 6689,
      "timeless": 6690,
      "quet": 6691,
      "quity": 6692,
      "Hector": 6693,
      "pledge": 6694,
      "musty": 6695,
      "graft": 6696,
      "ancest": 6697,
      "disco": 6698,
      "distra": 6699,
      "disorder": 6700,
      "disposed": 6701,
      "distin": 6702,
      "discharged": 6703,
      "distres": 6704,
      "discords": 6705,
      "distingu": 6706,
      "ounce": 6707,
      "sped": 6708,
      "spire": 6709,
      "spices": 6710,
      "spilt": 6711,
      "spiders": 6712,
      "Infer": 6713,
      "vio": 6714,
      "marr": 6715,
      "marble": 6716,
      "mariners": 6717,
      "Thoughts": 6718,
      "pless": 6719,
      "sies": 6720,
      "sied": 6721,
      "siege": 6722,
      "acy": 6723,
      "accent": 6724,
      "accompl": 6725,
      "hears": 6726,
      "hearken": 6727,
      "Beg": 6728,
      "Belike": 6729,
      "string": 6730,
      "strumpet": 6731,
      "strengthen": 6732,
      "naw": 6733,
      "naught": 6734,
      "angle": 6735,
      "angled": 6736,
      "desc": 6737,
      "ext": 6738,
      "exclaim": 6739,
      "exact": 6740,
      "brass": 6741,
      "bait": 6742,
      "bail": 6743,
      "breaking": 6744,
      "imped": 6745,
      "impatience": 6746,
      "impatient": 6747,
      "immedi": 6748,
      "impression": 6749,
      "impud": 6750,
      "looker": 6751,
      "voke": 6752,
      "chival": 6753,
      "afoot": 6754,
      "mistaking": 6755,
      "madest": 6756,
      "Seize": 6757,
      "lieutenant": 6758,
      "preced": 6759,
      "pregnant": 6760,
      "cheth": 6761,
      "chequ": 6762,
      "eming": 6763,
      "jocund": 6764,
      "foil": 6765,
      "follies": 6766,
      "headstrong": 6767,
      "nobleman": 6768,
      "flint": 6769,
      "sweets": 6770,
      "Any": 6771,
      "coz": 6772,
      "coal": 6773,
      "coil": 6774,
      "coals": 6775,
      "izel": 6776,
      "resort": 6777,
      "rescue": 6778,
      "warning": 6779,
      "grud": 6780,
      "intended": 6781,
      "restored": 6782,
      "wrangling": 6783,
      "bearer": 6784,
      "scrup": 6785,
      "queens": 6786,
      "privy": 6787,
      "caused": 6788,
      "derived": 6789,
      "whipt": 6790,
      "tragic": 6791,
      "rightly": 6792,
      "crowned": 6793,
      "lightly": 6794,
      "lightness": 6795,
      "braved": 6796,
      "madly": 6797,
      "madman": 6798,
      "park": 6799,
      "partial": 6800,
      "paradise": 6801,
      "parallel": 6802,
      "showers": 6803,
      "banquet": 6804,
      "bandy": 6805,
      "farthest": 6806,
      "purcha": 6807,
      "pursued": 6808,
      "helor": 6809,
      "charitable": 6810,
      "backward": 6811,
      "subdu": 6812,
      "peaceful": 6813,
      "elsewhere": 6814,
      "higher": 6815,
      "highway": 6816,
      "needle": 6817,
      "needless": 6818,
      "confines": 6819,
      "confusion": 6820,
      "ladyship": 6821,
      "underneath": 6822,
      "chains": 6823,
      "rancour": 6824,
      "husbands": 6825,
      "placed": 6826,
      "happier": 6827,
      "welcomes": 6828,
      "following": 6829,
      "gia": 6830,
      "gious": 6831,
      "horror": 6832,
      "pardons": 6833,
      "replied": 6834,
      "repetition": 6835,
      "truer": 6836,
      "budge": 6837,
      "built": 6838,
      "glories": 6839,
      "killed": 6840,
      "centre": 6841,
      "temperate": 6842,
      "clog": 6843,
      "cloth": 6844,
      "sands": 6845,
      "bribe": 6846,
      "kenbury": 6847,
      "curs": 6848,
      "cures": 6849,
      "curtain": 6850,
      "witted": 6851,
      "sung": 6852,
      "sunshine": 6853,
      "prisoners": 6854,
      "pire": 6855,
      "pile": 6856,
      "piled": 6857,
      "picious": 6858,
      "picture": 6859,
      "tingly": 6860,
      "xton": 6861,
      "remedies": 6862,
      "Herald": 6863,
      "Hercul": 6864,
      "Prof": 6865,
      "Proud": 6866,
      "uded": 6867,
      "villany": 6868,
      "itories": 6869,
      "sleeps": 6870,
      "sleepy": 6871,
      "falsely": 6872,
      "matters": 6873,
      "fights": 6874,
      "fighting": 6875,
      "meditation": 6876,
      "strain": 6877,
      "strait": 6878,
      "strains": 6879,
      "minstrel": 6880,
      "vails": 6881,
      "biting": 6882,
      "Attend": 6883,
      "yellow": 6884,
      "commanding": 6885,
      "dreamt": 6886,
      "prompt": 6887,
      "PAGE": 6888,
      "ighthood": 6889,
      "airy": 6890,
      "latest": 6891,
      "crew": 6892,
      "create": 6893,
      "sisterhood": 6894,
      "fouler": 6895,
      "Condemn": 6896,
      "delivered": 6897,
      "appell": 6898,
      "versy": 6899,
      "plaints": 6900,
      "generate": 6901,
      "beating": 6902,
      "tenderly": 6903,
      "gait": 6904,
      "gape": 6905,
      "gaol": 6906,
      "gaoler": 6907,
      "wisest": 6908,
      "woeful": 6909,
      "footman": 6910,
      "coldly": 6911,
      "returned": 6912,
      "draws": 6913,
      "hardy": 6914,
      "nursed": 6915,
      "silken": 6916,
      "plucks": 6917,
      "Gregory": 6918,
      "fitted": 6919,
      "penny": 6920,
      "pastime": 6921,
      "Measure": 6922,
      "hedge": 6923,
      "strongly": 6924,
      "deeply": 6925,
      "fasting": 6926,
      "quicken": 6927,
      "Join": 6928,
      "calumny": 6929,
      "obsc": 6930,
      "obtain": 6931,
      "worthily": 6932,
      "actor": 6933,
      "crook": 6934,
      "widows": 6935,
      "profits": 6936,
      "judged": 6937,
      "consumed": 6938,
      "mocking": 6939,
      "mockery": 6940,
      "pedant": 6941,
      "value": 6942,
      "resolute": 6943,
      "harmless": 6944,
      "counsels": 6945,
      "succor": 6946,
      "duce": 6947,
      "signs": 6948,
      "ashore": 6949,
      "knighthood": 6950,
      "wasted": 6951,
      "awry": 6952,
      "awful": 6953,
      "barr": 6954,
      "stirs": 6955,
      "stirring": 6956,
      "Lovel": 6957,
      "Lodowick": 6958,
      "possessed": 6959,
      "breathes": 6960,
      "Beshrew": 6961,
      "whore": 6962,
      "poisonous": 6963,
      "cheerfully": 6964,
      "Percy": 6965,
      "knowest": 6966,
      "divided": 6967,
      "divines": 6968,
      "appeared": 6969,
      "skin": 6970,
      "skulls": 6971,
      "created": 6972,
      "creatures": 6973,
      "pays": 6974,
      "palm": 6975,
      "interrup": 6976,
      "blessings": 6977,
      "direful": 6978,
      "Arm": 6979,
      "Arise": 6980,
      "whet": 6981,
      "wheel": 6982,
      "wheels": 6983,
      "summon": 6984,
      "darken": 6985,
      "fills": 6986,
      "hurried": 6987,
      "rumour": 6988,
      "scarlet": 6989,
      "natures": 6990,
      "chamberlain": 6991,
      "closely": 6992,
      "Mercy": 6993,
      "ethon": 6994,
      "salute": 6995,
      "regiment": 6996,
      "changes": 6997,
      "trembles": 6998,
      "cowardice": 6999,
      "hideous": 7000,
      "scorns": 7001,
      "triumphs": 7002,
      "witnesses": 7003,
      "gentler": 7004,
      "beastly": 7005,
      "volume": 7006,
      "lecture": 7007,
      "greetings": 7008,
      "climb": 7009,
      "cordial": 7010,
      "hunger": 7011,
      "nymph": 7012,
      "Affection": 7013,
      "Among": 7014,
      "Amongst": 7015,
      "mutiny": 7016,
      "infring": 7017,
      "street": 7018,
      "stream": 7019,
      "assault": 7020,
      "solely": 7021,
      "pestilence": 7022,
      "Dispatch": 7023,
      "drunkard": 7024,
      "Christopher": 7025,
      "Enough": 7026,
      "Worse": 7027,
      "fruits": 7028,
      "lustful": 7029,
      "mounting": 7030,
      "threats": 7031,
      "adders": 7032,
      "Abhor": 7033,
      "Advance": 7034,
      "mourning": 7035,
      "porter": 7036,
      "contrad": 7037,
      "understanding": 7038,
      "firmly": 7039,
      "Apothecary": 7040,
      "dainty": 7041,
      "syll": 7042,
      "injurious": 7043,
      "injuries": 7044,
      "suppliant": 7045,
      "quality": 7046,
      "demands": 7047,
      "scarcely": 7048,
      "schoolmaster": 7049,
      "Between": 7050,
      "Betwixt": 7051,
      "dwells": 7052,
      "nibal": 7053,
      "throats": 7054,
      "faintly": 7055,
      "apply": 7056,
      "miseries": 7057,
      "conditions": 7058,
      "Deser": 7059,
      "Neigh": 7060,
      "inclination": 7061,
      "concluded": 7062,
      "shriek": 7063,
      "capti": 7064,
      "captive": 7065,
      "fruitful": 7066,
      "amazement": 7067,
      "roundly": 7068,
      "whistle": 7069,
      "wolves": 7070,
      "starve": 7071,
      "beards": 7072,
      "utterance": 7073,
      "necessary": 7074,
      "importune": 7075,
      "Antiates": 7076,
      "plotted": 7077,
      "Doricles": 7078,
      "flame": 7079,
      "lane": 7080,
      "delights": 7081,
      "treachery": 7082,
      "jealousies": 7083,
      "witchcraft": 7084,
      "bootless": 7085,
      "Holy": 7086,
      "RREY": 7087,
      "Resol": 7088,
      "tonight": 7089,
      "inherited": 7090,
      "limits": 7091,
      "famish": 7092,
      "tailor": 7093,
      "persuasion": 7094,
      "preserved": 7095,
      "physician": 7096,
      "rascals": 7097,
      "baseness": 7098,
      "ugly": 7099,
      "aspiring": 7100,
      "weighty": 7101,
      "suffice": 7102,
      "pronounced": 7103,
      "penitence": 7104,
      "solemnity": 7105,
      "dedic": 7106,
      "merely": 7107,
      "millions": 7108,
      "songs": 7109,
      "wonders": 7110,
      "rewards": 7111,
      "shunn": 7112,
      "comforts": 7113,
      "assistance": 7114,
      "publicly": 7115,
      "Repent": 7116,
      "knightly": 7117,
      "thorns": 7118,
      "choleric": 7119,
      "apprehension": 7120,
      "fixed": 7121,
      "Brakenbury": 7122,
      "chastity": 7123,
      "chastisement": 7124,
      "lungs": 7125,
      "nobler": 7126,
      "receives": 7127,
      "perjury": 7128,
      "merrily": 7129,
      "merriment": 7130,
      "brawl": 7131,
      "brawling": 7132,
      "extremest": 7133,
      "circumstances": 7134,
      "Tarqu": 7135,
      "coffin": 7136,
      "difference": 7137,
      "events": 7138,
      "napkin": 7139,
      "pupil": 7140,
      "puppet": 7141,
      "admitted": 7142,
      "festival": 7143,
      "factors": 7144,
      "controversy": 7145,
      "posterous": 7146,
      "posterity": 7147,
      "dissemble": 7148,
      "achieve": 7149,
      "achieved": 7150,
      "council": 7151,
      "beguile": 7152,
      "correct": 7153,
      "Sixth": 7154,
      "Florizel": 7155,
      "alize": 7156,
      "baggage": 7157,
      "waning": 7158,
      "requires": 7159,
      "aloof": 7160,
      "society": 7161,
      "superflu": 7162,
      "disguised": 7163,
      "embraced": 7164,
      "restraint": 7165,
      "scolding": 7166,
      "bankrupt": 7167,
      "buzzard": 7168,
      "Meantime": 7169,
      "Greece": 7170,
      "Write": 7171,
      "longest": 7172,
      "threes": 7173,
      "haughty": 7174,
      "ambition": 7175,
      "transported": 7176,
      "consorted": 7177,
      "apprehend": 7178,
      "Cleomenes": 7179,
      "Evermore": 7180,
      "swoon": 7181,
      "vineyard": 7182,
      "vulgar": 7183,
      "vassal": 7184,
      "inferior": 7185,
      "insolence": 7186,
      "ragged": 7187,
      "supreme": 7188,
      "shelter": 7189,
      "diadem": 7190,
      "digal": 7191,
      "expedition": 7192,
      "experienced": 7193,
      "imperial": 7194,
      "flayed": 7195,
      "merciful": 7196,
      "testimony": 7197,
      "Welshmen": 7198,
      "divorce": 7199,
      "reckoning": 7200,
      "Obey": 7201,
      "Overdone": 7202,
      "Small": 7203,
      "Touching": 7204,
      "candle": 7205,
      "front": 7206,
      "rheum": 7207,
      "insulting": 7208,
      "rebuke": 7209,
      "forgiveness": 7210,
      "territories": 7211,
      "capital": 7212,
      "canopy": 7213,
      "nightingale": 7214,
      "grateful": 7215,
      "Consider": 7216,
      "troublous": 7217,
      "acknowledge": 7218,
      "Patrician": 7219,
      "medicine": 7220,
      "advertised": 7221,
      "puissant": 7222,
      "BONA": 7223,
      "Calais": 7224,
      "Elizabe": 7225,
      "Emilia": 7226,
      "EMILIA": 7227,
      "Fifth": 7228,
      "Francis": 7229,
      "Gainst": 7230,
      "Grandam": 7231,
      "Left": 7232,
      "Masters": 7233,
      "NATHANIEL": 7234,
      "Phaethon": 7235,
      "Phoebus": 7236,
      "Renown": 7237,
      "SURREY": 7238,
      "Twenty": 7239,
      "Urge": 7240,
      "bachelor": 7241,
      "cuckold": 7242,
      "eloqu": 7243,
      "gulf": 7244,
      "louder": 7245,
      "mptory": 7246,
      "peremptory": 7247,
      "scholar": 7248,
      "thwack": 7249,
      "notwithstanding": 7250,
      "degrees": 7251,
      "solicit": 7252,
      "prerogative": 7253,
      "caparison": 7254,
      "distressed": 7255,
      "impediment": 7256,
      "precedent": 7257,
      "Hercules": 7258,
      "Elizabeth": 7259,
      "'!": 7260,
      "'--": 7261,
      "Ama": 7262,
      "Afri": 7263,
      "Apri": 7264,
      "Aff": 7265,
      "Adam": 7266,
      "Acc": 7267,
      "Awake": 7268,
      "Awaked": 7269,
      "BL": 7270,
      "Base": 7271,
      "Black": 7272,
      "Bris": 7273,
      "Cro": 7274,
      "Care": 7275,
      "Coun": 7276,
      "CIS": 7277,
      "Cob": 7278,
      "Carl": 7279,
      "Child": 7280,
      "Dre": 7281,
      "Dight": 7282,
      "Dion": 7283,
      "Die": 7284,
      "Dick": 7285,
      "Eu": 7286,
      "EAR": 7287,
      "Exton": 7288,
      "Far": 7289,
      "Fine": 7290,
      "Found": 7291,
      "FRAN": 7292,
      "Fool": 7293,
      "Gir": 7294,
      "Gall": 7295,
      "Given": 7296,
      "Hoo": 7297,
      "Hal": 7298,
      "Hard": 7299,
      "Hallow": 7300,
      "Imag": 7301,
      "Irish": 7302,
      "Lat": 7303,
      "Less": 7304,
      "Lif": 7305,
      "Last": 7306,
      "Luke": 7307,
      "Lud": 7308,
      "Little": 7309,
      "Mo": 7310,
      "Mere": 7311,
      "Mab": 7312,
      "Nine": 7313,
      "Nath": 7314,
      "Night": 7315,
      "Op": 7316,
      "Phi": 7317,
      "Pil": 7318,
      "Pier": 7319,
      "Place": 7320,
      "Ra": 7321,
      "Rus": 7322,
      "Rise": 7323,
      "Ref": 7324,
      "Rago": 7325,
      "Sent": 7326,
      "Sad": 7327,
      "Spo": 7328,
      "Sel": 7329,
      "Sland": 7330,
      "Soul": 7331,
      "South": 7332,
      "Stop": 7333,
      "Sleep": 7334,
      "Suff": 7335,
      "Silence": 7336,
      "Ti": 7337,
      "Tre": 7338,
      "Tend": 7339,
      "Tong": 7340,
      "Tem": 7341,
      "Thither": 7342,
      "Tick": 7343,
      "Takes": 7344,
      "UR": 7345,
      "Uly": 7346,
      "UNT": 7347,
      "Went": 7348,
      "Wra": 7349,
      "Yonder": 7350,
      "ae": 7351,
      "aut": 7352,
      "aust": 7353,
      "aled": 7354,
      "aery": 7355,
      "avouch": 7356,
      "aqua": 7357,
      "awares": 7358,
      "bis": 7359,
      "bard": 7360,
      "bust": 7361,
      "bast": 7362,
      "bies": 7363,
      "batter": 7364,
      "bted": 7365,
      "bits": 7366,
      "bborn": 7367,
      "bier": 7368,
      "bide": 7369,
      "bash": 7370,
      "bassa": 7371,
      "blocks": 7372,
      "blots": 7373,
      "boured": 7374,
      "cam": 7375,
      "cull": 7376,
      "clip": 7377,
      "cuff": 7378,
      "ckey": 7379,
      "cued": 7380,
      "cool": 7381,
      "dastard": 7382,
      "dances": 7383,
      "dler": 7384,
      "duteous": 7385,
      "eg": 7386,
      "equ": 7387,
      "egg": 7388,
      "fen": 7389,
      "fes": 7390,
      "fut": 7391,
      "fli": 7392,
      "fter": 7393,
      "fend": 7394,
      "fate": 7395,
      "fence": 7396,
      "foun": 7397,
      "fford": 7398,
      "fowl": 7399,
      "gom": 7400,
      "glove": 7401,
      "gorge": 7402,
      "gilt": 7403,
      "ghest": 7404,
      "gnaw": 7405,
      "hoo": 7406,
      "hint": 7407,
      "harms": 7408,
      "hoop": 7409,
      "ix": 7410,
      "iate": 7411,
      "ipt": 7412,
      "imed": 7413,
      "ivers": 7414,
      "ibat": 7415,
      "iquity": 7416,
      "jar": 7417,
      "jump": 7418,
      "ky": 7419,
      "kers": 7420,
      "kitch": 7421,
      "lts": 7422,
      "lass": 7423,
      "lorn": 7424,
      "mow": 7425,
      "mart": 7426,
      "mong": 7427,
      "muse": 7428,
      "mute": 7429,
      "nin": 7430,
      "nur": 7431,
      "nuns": 7432,
      "ox": 7433,
      "oce": 7434,
      "py": 7435,
      "pse": 7436,
      "pond": 7437,
      "pies": 7438,
      "pines": 7439,
      "rar": 7440,
      "rong": 7441,
      "rhy": 7442,
      "rings": 7443,
      "rates": 7444,
      "rents": 7445,
      "rarest": 7446,
      "sn": 7447,
      "sou": 7448,
      "sce": 7449,
      "sly": 7450,
      "sma": 7451,
      "sby": 7452,
      "sook": 7453,
      "smi": 7454,
      "ssed": 7455,
      "sist": 7456,
      "soften": 7457,
      "swine": 7458,
      "swol": 7459,
      "tu": 7460,
      "twi": 7461,
      "tum": 7462,
      "tatter": 7463,
      "tunes": 7464,
      "tides": 7465,
      "tires": 7466,
      "tumbling": 7467,
      "tsey": 7468,
      "terest": 7469,
      "tgom": 7470,
      "uto": 7471,
      "uit": 7472,
      "uble": 7473,
      "udes": 7474,
      "vit": 7475,
      "vion": 7476,
      "vap": 7477,
      "vided": 7478,
      "wheres": 7479,
      "zine": 7480,
      "zwater": 7481,
      "thren": 7482,
      "threw": 7483,
      "oubted": 7484,
      "erun": 7485,
      "eria": 7486,
      "erwhelm": 7487,
      "infa": 7488,
      "inty": 7489,
      "inite": 7490,
      "inable": 7491,
      "incur": 7492,
      "infirm": 7493,
      "instead": 7494,
      "incapable": 7495,
      "influ": 7496,
      "anno": 7497,
      "anti": 7498,
      "antial": 7499,
      "ortive": 7500,
      "isk": 7501,
      "issues": 7502,
      "enro": 7503,
      "ende": 7504,
      "ensue": 7505,
      "enjoin": 7506,
      "encourage": 7507,
      "enfranch": 7508,
      "arra": 7509,
      "atone": 7510,
      "atage": 7511,
      "atory": 7512,
      "attach": 7513,
      "sty": 7514,
      "stam": 7515,
      "stage": 7516,
      "stuck": 7517,
      "steter": 7518,
      "staring": 7519,
      "starts": 7520,
      "stool": 7521,
      "mets": 7522,
      "toes": 7523,
      "tock": 7524,
      "toss": 7525,
      "espe": 7526,
      "sear": 7527,
      "sequi": 7528,
      "secur": 7529,
      "sevent": 7530,
      "haw": 7531,
      "haven": 7532,
      "hallow": 7533,
      "remo": 7534,
      "repro": 7535,
      "rehear": 7536,
      "rection": 7537,
      "relieve": 7538,
      "remiss": 7539,
      "regreet": 7540,
      "release": 7541,
      "requite": 7542,
      "revell": 7543,
      "repaid": 7544,
      "regia": 7545,
      "vehe": 7546,
      "beho": 7547,
      "beck": 7548,
      "bewr": 7549,
      "became": 7550,
      "bewitch": 7551,
      "belongs": 7552,
      "lex": 7553,
      "leven": 7554,
      "lebr": 7555,
      "leather": 7556,
      "lehill": 7557,
      "widower": 7558,
      "hic": 7559,
      "highest": 7560,
      "celebr": 7561,
      "foret": 7562,
      "forlorn": 7563,
      "forsook": 7564,
      "forerun": 7565,
      "ases": 7566,
      "asci": 7567,
      "ashy": 7568,
      "asite": 7569,
      "asks": 7570,
      "chan": 7571,
      "chery": 7572,
      "charms": 7573,
      "chron": 7574,
      "edu": 7575,
      "edic": 7576,
      "edict": 7577,
      "utus": 7578,
      "utches": 7579,
      "rod": 7580,
      "road": 7581,
      "rood": 7582,
      "rogues": 7583,
      "lian": 7584,
      "liars": 7585,
      "liction": 7586,
      "limb": 7587,
      "livion": 7588,
      "dex": 7589,
      "demi": 7590,
      "defect": 7591,
      "detect": 7592,
      "degenerate": 7593,
      "web": 7594,
      "hatches": 7595,
      "keen": 7596,
      "ouris": 7597,
      "enters": 7598,
      "rian": 7599,
      "ribb": 7600,
      "adorn": 7601,
      "adder": 7602,
      "eteen": 7603,
      "allied": 7604,
      "urous": 7605,
      "urbs": 7606,
      "urging": 7607,
      "usage": 7608,
      "usale": 7609,
      "uspicious": 7610,
      "soe": 7611,
      "sop": 7612,
      "soar": 7613,
      "sober": 7614,
      "soonest": 7615,
      "solace": 7616,
      "rap": 7617,
      "rapt": 7618,
      "raged": 7619,
      "raze": 7620,
      "rabble": 7621,
      "ords": 7622,
      "ordain": 7623,
      "doit": 7624,
      "doings": 7625,
      "dolour": 7626,
      "doleful": 7627,
      "unst": 7628,
      "unch": 7629,
      "unlike": 7630,
      "ungentle": 7631,
      "unrest": 7632,
      "unction": 7633,
      "unfit": 7634,
      "unthri": 7635,
      "unpleasing": 7636,
      "unprovided": 7637,
      "unavoided": 7638,
      "unusual": 7639,
      "unaccustom": 7640,
      "unawares": 7641,
      "univers": 7642,
      "hog": 7643,
      "hoard": 7644,
      "homi": 7645,
      "map": 7646,
      "mathem": 7647,
      "maim": 7648,
      "makers": 7649,
      "pell": 7650,
      "peck": 7651,
      "peasant": 7652,
      "fees": 7653,
      "fester": 7654,
      "femin": 7655,
      "los": 7656,
      "verge": 7657,
      "verity": 7658,
      "verdict": 7659,
      "fable": 7660,
      "fails": 7661,
      "fabric": 7662,
      "factious": 7663,
      "mankind": 7664,
      "manacles": 7665,
      "tice": 7666,
      "amended": 7667,
      "ambush": 7668,
      "nearest": 7669,
      "gear": 7670,
      "geia": 7671,
      "butchers": 7672,
      "terate": 7673,
      "ternal": 7674,
      "cony": 7675,
      "conver": 7676,
      "contend": 7677,
      "contain": 7678,
      "convent": 7679,
      "convers": 7680,
      "conserves": 7681,
      "prat": 7682,
      "prised": 7683,
      "proffer": 7684,
      "Thinking": 7685,
      "Throng": 7686,
      "Told": 7687,
      "Together": 7688,
      "endow": 7689,
      "ominous": 7690,
      "lame": 7691,
      "laughter": 7692,
      "lazy": 7693,
      "laboured": 7694,
      "lackey": 7695,
      "morsel": 7696,
      "shouts": 7697,
      "shores": 7698,
      "poll": 7699,
      "potion": 7700,
      "poised": 7701,
      "usters": 7702,
      "trenches": 7703,
      "mois": 7704,
      "moans": 7705,
      "molehill": 7706,
      "teeming": 7707,
      "goest": 7708,
      "goodman": 7709,
      "boding": 7710,
      "vener": 7711,
      "shear": 7712,
      "shell": 7713,
      "shepher": 7714,
      "sheets": 7715,
      "cape": 7716,
      "cable": 7717,
      "caged": 7718,
      "ulation": 7719,
      "blasp": 7720,
      "Forrest": 7721,
      "Forbid": 7722,
      "sails": 7723,
      "worships": 7724,
      "peror": 7725,
      "perch": 7726,
      "perio": 7727,
      "peration": 7728,
      "perused": 7729,
      "perchance": 7730,
      "peradventure": 7731,
      "ctly": 7732,
      "ctors": 7733,
      "compell": 7734,
      "seeking": 7735,
      "seemed": 7736,
      "seemeth": 7737,
      "dible": 7738,
      "divers": 7739,
      "digy": 7740,
      "diligence": 7741,
      "cide": 7742,
      "cible": 7743,
      "agony": 7744,
      "spell": 7745,
      "specially": 7746,
      "speeches": 7747,
      "broils": 7748,
      "Assist": 7749,
      "prover": 7750,
      "produce": 7751,
      "prodigal": 7752,
      "prodigy": 7753,
      "Weep": 7754,
      "quess": 7755,
      "Helen": 7756,
      "appla": 7757,
      "somebody": 7758,
      "file": 7759,
      "fiends": 7760,
      "ficial": 7761,
      "fickle": 7762,
      "usest": 7763,
      "daylight": 7764,
      "igation": 7765,
      "dislike": 7766,
      "distill": 7767,
      "dishes": 7768,
      "diseas": 7769,
      "disloyal": 7770,
      "displeased": 7771,
      "distemper": 7772,
      "disinherit": 7773,
      "discipl": 7774,
      "disinherited": 7775,
      "howl": 7776,
      "spar": 7777,
      "spurn": 7778,
      "space": 7779,
      "sparing": 7780,
      "esta": 7781,
      "Inf": 7782,
      "fulfill": 7783,
      "handle": 7784,
      "handsome": 7785,
      "handker": 7786,
      "mary": 7787,
      "marquess": 7788,
      "pling": 7789,
      "plent": 7790,
      "plore": 7791,
      "sia": 7792,
      "swept": 7793,
      "accompany": 7794,
      "acket": 7795,
      "acquit": 7796,
      "acheth": 7797,
      "hearth": 7798,
      "Become": 7799,
      "Withal": 7800,
      "stray": 7801,
      "strue": 7802,
      "stratage": 7803,
      "desired": 7804,
      "exha": 7805,
      "expost": 7806,
      "external": 7807,
      "brine": 7808,
      "brittle": 7809,
      "heaviness": 7810,
      "tellus": 7811,
      "bauble": 7812,
      "breech": 7813,
      "brethren": 7814,
      "impose": 7815,
      "imposition": 7816,
      "whereupon": 7817,
      "lesson": 7818,
      "counters": 7819,
      "void": 7820,
      "chid": 7821,
      "chides": 7822,
      "affright": 7823,
      "mista": 7824,
      "mistook": 7825,
      "ability": 7826,
      "abuses": 7827,
      "nightly": 7828,
      "fairies": 7829,
      "Seal": 7830,
      "Sebast": 7831,
      "Mariner": 7832,
      "preh": 7833,
      "precise": 7834,
      "prevails": 7835,
      "preposterous": 7836,
      "cheers": 7837,
      "embassa": 7838,
      "emulation": 7839,
      "efold": 7840,
      "effemin": 7841,
      "bery": 7842,
      "bering": 7843,
      "berries": 7844,
      "partake": 7845,
      "fearless": 7846,
      "Yourself": 7847,
      "lively": 7848,
      "serving": 7849,
      "calling": 7850,
      "greatly": 7851,
      "assad": 7852,
      "foaming": 7853,
      "fling": 7854,
      "flinty": 7855,
      "sweeten": 7856,
      "fortnight": 7857,
      "cox": 7858,
      "coats": 7859,
      "merits": 7860,
      "oughly": 7861,
      "oughby": 7862,
      "pted": 7863,
      "resh": 7864,
      "residence": 7865,
      "resisted": 7866,
      "reserved": 7867,
      "wary": 7868,
      "iege": 7869,
      "grub": 7870,
      "intends": 7871,
      "interest": 7872,
      "Whence": 7873,
      "resteth": 7874,
      "restrain": 7875,
      "scur": 7876,
      "scra": 7877,
      "scare": 7878,
      "scars": 7879,
      "scouts": 7880,
      "sses": 7881,
      "pricks": 7882,
      "longing": 7883,
      "prescri": 7884,
      "presseth": 7885,
      "iced": 7886,
      "icester": 7887,
      "opposed": 7888,
      "whipped": 7889,
      "begging": 7890,
      "clout": 7891,
      "dyed": 7892,
      "poorest": 7893,
      "footing": 7894,
      "traged": 7895,
      "traffi": 7896,
      "Sirs": 7897,
      "mightily": 7898,
      "attering": 7899,
      "lighted": 7900,
      "tendom": 7901,
      "aching": 7902,
      "treble": 7903,
      "brazen": 7904,
      "bragg": 7905,
      "tales": 7906,
      "parle": 7907,
      "parch": 7908,
      "parcel": 7909,
      "parlous": 7910,
      "parasite": 7911,
      "guide": 7912,
      "engross": 7913,
      "uneven": 7914,
      "sentious": 7915,
      "hourly": 7916,
      "purged": 7917,
      "purses": 7918,
      "pursues": 7919,
      "purposes": 7920,
      "helms": 7921,
      "helmets": 7922,
      "charters": 7923,
      "denial": 7924,
      "royally": 7925,
      "suborn": 7926,
      "subdue": 7927,
      "submission": 7928,
      "subscri": 7929,
      "suburbs": 7930,
      "Willoughby": 7931,
      "beshrew": 7932,
      "besiege": 7933,
      "tongueless": 7934,
      "hopeless": 7935,
      "hush": 7936,
      "needy": 7937,
      "confined": 7938,
      "undergo": 7939,
      "chain": 7940,
      "chaff": 7941,
      "chafed": 7942,
      "thrall": 7943,
      "justly": 7944,
      "justify": 7945,
      "ranks": 7946,
      "passes": 7947,
      "happen": 7948,
      "cleft": 7949,
      "fallible": 7950,
      "welkin": 7951,
      "pleaseth": 7952,
      "gild": 7953,
      "giant": 7954,
      "horrible": 7955,
      "trudge": 7956,
      "burial": 7957,
      "glister": 7958,
      "bringing": 7959,
      "killing": 7960,
      "womanish": 7961,
      "shipp": 7962,
      "shift": 7963,
      "shamed": 7964,
      "shameless": 7965,
      "busied": 7966,
      "drag": 7967,
      "carrion": 7968,
      "bridge": 7969,
      "kennel": 7970,
      "cern": 7971,
      "cury": 7972,
      "curbs": 7973,
      "cession": 7974,
      "senis": 7975,
      "lacks": 7976,
      "wrongfully": 7977,
      "garlic": 7978,
      "suns": 7979,
      "vironed": 7980,
      "helping": 7981,
      "pily": 7982,
      "pipe": 7983,
      "pikes": 7984,
      "xture": 7985,
      "rememb": 7986,
      "fooling": 7987,
      "Stir": 7988,
      "overheard": 7989,
      "overthrow": 7990,
      "petti": 7991,
      "stride": 7992,
      "stripes": 7993,
      "turning": 7994,
      "forms": 7995,
      "Princes": 7996,
      "elders": 7997,
      "uddy": 7998,
      "jects": 7999,
      "slender": 8000,
      "ville": 8001,
      "villan": 8002,
      "plays": 8003,
      "knell": 8004,
      "swearing": 8005,
      "waving": 8006,
      "Wouldst": 8007,
      "talked": 8008,
      "corpor": 8009,
      "countryman": 8010,
      "minal": 8011,
      "minster": 8012,
      "sending": 8013,
      "wishing": 8014,
      "bites": 8015,
      "gotten": 8016,
      "spoils": 8017,
      "deserving": 8018,
      "deserts": 8019,
      "winding": 8020,
      "yew": 8021,
      "breaths": 8022,
      "commandment": 8023,
      "promotion": 8024,
      "doubtless": 8025,
      "Juno": 8026,
      "Jule": 8027,
      "Lives": 8028,
      "freeze": 8029,
      "kissing": 8030,
      "asked": 8031,
      "Alone": 8032,
      "creeping": 8033,
      "Ross": 8034,
      "entering": 8035,
      "enterprise": 8036,
      "relent": 8037,
      "relish": 8038,
      "relation": 8039,
      "delivery": 8040,
      "clap": 8041,
      "claimed": 8042,
      "grove": 8043,
      "painful": 8044,
      "painting": 8045,
      "visor": 8046,
      "bats": 8047,
      "changeling": 8048,
      "pointed": 8049,
      "lamp": 8050,
      "wishes": 8051,
      "wearing": 8052,
      "warrants": 8053,
      "Julius": 8054,
      "linger": 8055,
      "lify": 8056,
      "Montgom": 8057,
      "colder": 8058,
      "saddle": 8059,
      "marrying": 8060,
      "returns": 8061,
      "harder": 8062,
      "nerves": 8063,
      "throughly": 8064,
      "plucked": 8065,
      "strangely": 8066,
      "fitter": 8067,
      "fitting": 8068,
      "pens": 8069,
      "penury": 8070,
      "losses": 8071,
      "nearer": 8072,
      "Meet": 8073,
      "Revol": 8074,
      "titles": 8075,
      "trod": 8076,
      "wooers": 8077,
      "entreated": 8078,
      "Glad": 8079,
      "Senators": 8080,
      "supple": 8081,
      "quarre": 8082,
      "quarters": 8083,
      "crad": 8084,
      "crutch": 8085,
      "crutches": 8086,
      "calf": 8087,
      "obser": 8088,
      "obdur": 8089,
      "obsequ": 8090,
      "obsequi": 8091,
      "oblivion": 8092,
      "presses": 8093,
      "worthier": 8094,
      "worthiest": 8095,
      "opening": 8096,
      "acting": 8097,
      "cropp": 8098,
      "profound": 8099,
      "Seeking": 8100,
      "consume": 8101,
      "consuls": 8102,
      "moveables": 8103,
      "mocked": 8104,
      "speedily": 8105,
      "Dece": 8106,
      "Deep": 8107,
      "valued": 8108,
      "leader": 8109,
      "leading": 8110,
      "choke": 8111,
      "ordering": 8112,
      "orderly": 8113,
      "countermand": 8114,
      "dishonest": 8115,
      "murdering": 8116,
      "dropp": 8117,
      "surly": 8118,
      "surname": 8119,
      "survey": 8120,
      "surprised": 8121,
      "shorten": 8122,
      "Church": 8123,
      "crimes": 8124,
      "criminal": 8125,
      "dug": 8126,
      "ducats": 8127,
      "mities": 8128,
      "signories": 8129,
      "wonted": 8130,
      "wondering": 8131,
      "stole": 8132,
      "studies": 8133,
      "studied": 8134,
      "stubborn": 8135,
      "sickly": 8136,
      "pretation": 8137,
      "deliverance": 8138,
      "praised": 8139,
      "watchful": 8140,
      "flatterer": 8141,
      "bargain": 8142,
      "barbar": 8143,
      "stirrup": 8144,
      "posts": 8145,
      "Loved": 8146,
      "SALIS": 8147,
      "abode": 8148,
      "certainly": 8149,
      "Plain": 8150,
      "Pluck": 8151,
      "Plashy": 8152,
      "fourth": 8153,
      "consented": 8154,
      "cheerful": 8155,
      "LORDS": 8156,
      "Perchance": 8157,
      "tinent": 8158,
      "torches": 8159,
      "torments": 8160,
      "throws": 8161,
      "appearing": 8162,
      "skil": 8163,
      "skins": 8164,
      "sprites": 8165,
      "liberties": 8166,
      "usurer": 8167,
      "beginning": 8168,
      "frowning": 8169,
      "intercession": 8170,
      "feasting": 8171,
      "troubles": 8172,
      "patiently": 8173,
      "fresher": 8174,
      "freshest": 8175,
      "masqu": 8176,
      "message": 8177,
      "summers": 8178,
      "speechless": 8179,
      "victorious": 8180,
      "briefly": 8181,
      "darkly": 8182,
      "scarr": 8183,
      "visiting": 8184,
      "Mercury": 8185,
      "ginger": 8186,
      "harlot": 8187,
      "swim": 8188,
      "swifter": 8189,
      "salut": 8190,
      "softly": 8191,
      "stains": 8192,
      "region": 8193,
      "verns": 8194,
      "worshipful": 8195,
      "violate": 8196,
      "respects": 8197,
      "Pale": 8198,
      "eating": 8199,
      "favourable": 8200,
      "pleasures": 8201,
      "Standing": 8202,
      "lamentations": 8203,
      "ports": 8204,
      "approaches": 8205,
      "borough": 8206,
      "cency": 8207,
      "censured": 8208,
      "gentry": 8209,
      "malicious": 8210,
      "malignant": 8211,
      "Except": 8212,
      "slanders": 8213,
      "innocency": 8214,
      "wildly": 8215,
      "proceeding": 8216,
      "drinks": 8217,
      "greets": 8218,
      "births": 8219,
      "corns": 8220,
      "corner": 8221,
      "corners": 8222,
      "girls": 8223,
      "mirror": 8224,
      "sorted": 8225,
      "reckless": 8226,
      "continu": 8227,
      "continued": 8228,
      "Blood": 8229,
      "Blind": 8230,
      "Blush": 8231,
      "Priami": 8232,
      "daring": 8233,
      "dooms": 8234,
      "mutinies": 8235,
      "infancy": 8236,
      "infinite": 8237,
      "streak": 8238,
      "beggary": 8239,
      "beggarly": 8240,
      "Englishman": 8241,
      "severity": 8242,
      "Christendom": 8243,
      "swiftly": 8244,
      "Enforce": 8245,
      "ailing": 8246,
      "drowning": 8247,
      "scaped": 8248,
      "added": 8249,
      "hostess": 8250,
      "proofs": 8251,
      "desperately": 8252,
      "effects": 8253,
      "doublet": 8254,
      "Abbot": 8255,
      "bastardy": 8256,
      "enjoys": 8257,
      "preparation": 8258,
      "clamorous": 8259,
      "stealing": 8260,
      "authorities": 8261,
      "wretchedness": 8262,
      "sym": 8263,
      "injured": 8264,
      "arrival": 8265,
      "qualities": 8266,
      "Heavens": 8267,
      "substantial": 8268,
      "Knows": 8269,
      "Music": 8270,
      "Showing": 8271,
      "customary": 8272,
      "dwelling": 8273,
      "nip": 8274,
      "dealing": 8275,
      "anguish": 8276,
      "privately": 8277,
      "prophecies": 8278,
      "ggard": 8279,
      "garment": 8280,
      "wagon": 8281,
      "incline": 8282,
      "alteration": 8283,
      "temperance": 8284,
      "Sigeia": 8285,
      "Simois": 8286,
      "driven": 8287,
      "fretting": 8288,
      "knavery": 8289,
      "article": 8290,
      "articles": 8291,
      "starved": 8292,
      "refuge": 8293,
      "leanness": 8294,
      "weighs": 8295,
      "weighing": 8296,
      "necessities": 8297,
      "sailors": 8298,
      "embracements": 8299,
      "innocents": 8300,
      "ballads": 8301,
      "flag": 8302,
      "journ": 8303,
      "complaints": 8304,
      "apparell": 8305,
      "profession": 8306,
      "Holl": 8307,
      "Rescue": 8308,
      "fashions": 8309,
      "smelt": 8310,
      "slide": 8311,
      "slipp": 8312,
      "negligent": 8313,
      "persuaded": 8314,
      "expressly": 8315,
      "offenders": 8316,
      "physicians": 8317,
      "Brought": 8318,
      "Brandon": 8319,
      "basil": 8320,
      "bondage": 8321,
      "election": 8322,
      "elements": 8323,
      "lineal": 8324,
      "lineaments": 8325,
      "shock": 8326,
      "vanish": 8327,
      "stabbed": 8328,
      "vexation": 8329,
      "affected": 8330,
      "companions": 8331,
      "petitions": 8332,
      "accusations": 8333,
      "directly": 8334,
      "humane": 8335,
      "punishment": 8336,
      "Bearing": 8337,
      "furnished": 8338,
      "rosemary": 8339,
      "depth": 8340,
      "feeble": 8341,
      "complete": 8342,
      "figured": 8343,
      "advancement": 8344,
      "Acquaint": 8345,
      "Accursed": 8346,
      "Repair": 8347,
      "Setting": 8348,
      "bonny": 8349,
      "bonnet": 8350,
      "listen": 8351,
      "nettle": 8352,
      "thorny": 8353,
      "instance": 8354,
      "hills": 8355,
      "magic": 8356,
      "disperse": 8357,
      "maidenhead": 8358,
      "considering": 8359,
      "instructions": 8360,
      "suspected": 8361,
      "Breathe": 8362,
      "Brave": 8363,
      "Fell": 8364,
      "Player": 8365,
      "bills": 8366,
      "cushion": 8367,
      "fifty": 8368,
      "sainted": 8369,
      "enforcement": 8370,
      "atics": 8371,
      "melting": 8372,
      "melted": 8373,
      "receipt": 8374,
      "unjustly": 8375,
      "heavily": 8376,
      "jewels": 8377,
      "waiting": 8378,
      "affliction": 8379,
      "coffers": 8380,
      "turtle": 8381,
      "incense": 8382,
      "detested": 8383,
      "detestable": 8384,
      "control": 8385,
      "dissembling": 8386,
      "jointure": 8387,
      "floods": 8388,
      "gratis": 8389,
      "beguiled": 8390,
      "complexions": 8391,
      "ceremony": 8392,
      "reconciled": 8393,
      "Quick": 8394,
      "apothecary": 8395,
      "pillars": 8396,
      "stumbled": 8397,
      "decree": 8398,
      "wealthy": 8399,
      "manifested": 8400,
      "disguise": 8401,
      "acquaintance": 8402,
      "embraces": 8403,
      "restrained": 8404,
      "clouded": 8405,
      "thankfulness": 8406,
      "Meaning": 8407,
      "Castle": 8408,
      "Guild": 8409,
      "Happily": 8410,
      "Valent": 8411,
      "Valeria": 8412,
      "White": 8413,
      "Whoop": 8414,
      "evident": 8415,
      "filthy": 8416,
      "lurk": 8417,
      "lurking": 8418,
      "lengthens": 8419,
      "smoking": 8420,
      "walking": 8421,
      "walks": 8422,
      "threefold": 8423,
      "thirsty": 8424,
      "toys": 8425,
      "celsa": 8426,
      "ambassad": 8427,
      "bruised": 8428,
      "collect": 8429,
      "doubted": 8430,
      "beauties": 8431,
      "beautiful": 8432,
      "inheritance": 8433,
      "sacrifice": 8434,
      "Fitzwater": 8435,
      "James": 8436,
      "Pursuivant": 8437,
      "Susan": 8438,
      "Stafford": 8439,
      "blasts": 8440,
      "fishes": 8441,
      "gamut": 8442,
      "session": 8443,
      "toucheth": 8444,
      "argument": 8445,
      "arguments": 8446,
      "attorneys": 8447,
      "robbers": 8448,
      "decrees": 8449,
      "transgress": 8450,
      "qualify": 8451,
      "discreet": 8452,
      "discretion": 8453,
      "planet": 8454,
      "bawdy": 8455,
      "abundant": 8456,
      "abundance": 8457,
      "resemblance": 8458,
      "complices": 8459,
      "spotted": 8460,
      "drooping": 8461,
      "Persuade": 8462,
      "Persuades": 8463,
      "adulteress": 8464,
      "Cheer": 8465,
      "Destroy": 8466,
      "Delpho": 8467,
      "Err": 8468,
      "Redeem": 8469,
      "Relent": 8470,
      "Sorrow": 8471,
      "Sicinius": 8472,
      "Turks": 8473,
      "bulk": 8474,
      "finish": 8475,
      "linen": 8476,
      "powder": 8477,
      "vouches": 8478,
      "invention": 8479,
      "separated": 8480,
      "requital": 8481,
      "wieldy": 8482,
      "assembly": 8483,
      "rigour": 8484,
      "unluckily": 8485,
      "butterfly": 8486,
      "conspiracy": 8487,
      "posterns": 8488,
      "gossips": 8489,
      "agreement": 8490,
      "spectators": 8491,
      "spectacle": 8492,
      "Westminster": 8493,
      "sparkling": 8494,
      "scourge": 8495,
      "clergy": 8496,
      "insinuate": 8497,
      "confederate": 8498,
      "champion": 8499,
      "afterwards": 8500,
      "Charge": 8501,
      "magistrate": 8502,
      "fantastical": 8503,
      "yesternight": 8504,
      "momentary": 8505,
      "Banish": 8506,
      "Chertsey": 8507,
      "Condition": 8508,
      "Dukes": 8509,
      "Deny": 8510,
      "Hostess": 8511,
      "Jerusale": 8512,
      "Lammas": 8513,
      "Step": 8514,
      "Witness": 8515,
      "drowsy": 8516,
      "niece": 8517,
      "tinker": 8518,
      "treaty": 8519,
      "vigour": 8520,
      "threshold": 8521,
      "inveterate": 8522,
      "orchard": 8523,
      "orphans": 8524,
      "argosy": 8525,
      "sticks": 8526,
      "stershire": 8527,
      "reprieve": 8528,
      "ingrateful": 8529,
      "beetle": 8530,
      "fornication": 8531,
      "deformity": 8532,
      "deceased": 8533,
      "ordinance": 8534,
      "mangled": 8535,
      "sulph": 8536,
      "trencher": 8537,
      "Forthwith": 8538,
      "savoury": 8539,
      "indifferent": 8540,
      "commodity": 8541,
      "ancestors": 8542,
      "discovery": 8543,
      "distinctly": 8544,
      "distinguish": 8545,
      "accomplish": 8546,
      "exclaims": 8547,
      "immediately": 8548,
      "chivalry": 8549,
      "purchased": 8550,
      "subdued": 8551,
      "minstrels": 8552,
      "appellant": 8553,
      "obscured": 8554,
      "infringe": 8555,
      "Abhorson": 8556,
      "Tarquin": 8557,
      "Renowned": 8558,
      "eloquence": 8559,
      "Amazon": 8560,
      "April": 8561,
      "BLUNT": 8562,
      "Bristol": 8563,
      "Crosby": 8564,
      "Cobham": 8565,
      "Carlisle": 8566,
      "Children": 8567,
      "Dighton": 8568,
      "Europe": 8569,
      "EARL": 8570,
      "FRANCIS": 8571,
      "Girl": 8572,
      "Half": 8573,
      "Hallowmas": 8574,
      "Imagine": 8575,
      "Latin": 8576,
      "Ludlow": 8577,
      "Merely": 8578,
      "Nathaniel": 8579,
      "Philip": 8580,
      "Russia": 8581,
      "Ragozine": 8582,
      "Spoke": 8583,
      "Souls": 8584,
      "Tiber": 8585,
      "Trem": 8586,
      "Tongue": 8587,
      "Ulysses": 8588,
      "auster": 8589,
      "bustle": 8590,
      "battery": 8591,
      "bashful": 8592,
      "future": 8593,
      "fliers": 8594,
      "nineteen": 8595,
      "rhyme": 8596,
      "smiled": 8597,
      "swoln": 8598,
      "tumult": 8599,
      "vitae": 8600,
      "infamy": 8601,
      "infirmity": 8602,
      "annoy": 8603,
      "endea": 8604,
      "arraign": 8605,
      "steterat": 8606,
      "especially": 8607,
      "security": 8608,
      "remote": 8609,
      "bewray": 8610,
      "foretell": 8611,
      "ascivious": 8612,
      "homicide": 8613,
      "mathematics": 8614,
      "shepherds": 8615,
      "blasphe": 8616,
      "period": 8617,
      "applause": 8618,
      "diseases": 8619,
      "stratagems": 8620,
      "Sebastian": 8621,
      "effeminate": 8622,
      "traffic": 8623,
      "subscribe": 8624,
      "remembered": 8625,
      "Montgomery": 8626,
      "obdurate": 8627,
      "obsequies": 8628,
      "SALISBURY": 8629,
      "Delphos": 8630,
      "Jerusalem": 8631,
      "Ado": 8632,
      "Aim": 8633,
      "Allow": 8634,
      "App": 8635,
      "AEd": 8636,
      "Abra": 8637,
      "Alex": 8638,
      "Bar": 8639,
      "Bay": 8640,
      "Bour": 8641,
      "Bri": 8642,
      "Bare": 8643,
      "Bore": 8644,
      "Bret": 8645,
      "Bene": 8646,
      "Boot": 8647,
      "Cer": 8648,
      "CARD": 8649,
      "Crown": 8650,
      "Cull": 8651,
      "Cop": 8652,
      "Chide": 8653,
      "Cot": 8654,
      "Day": 8655,
      "Dra": 8656,
      "Done": 8657,
      "Dry": 8658,
      "Def": 8659,
      "Dull": 8660,
      "Drum": 8661,
      "During": 8662,
      "Eth": 8663,
      "Echo": 8664,
      "Earth": 8665,
      "Eleven": 8666,
      "Fan": 8667,
      "Fur": 8668,
      "Fla": 8669,
      "Fast": 8670,
      "Free": 8671,
      "Fred": 8672,
      "Few": 8673,
      "Gon": 8674,
      "Gro": 8675,
      "Gave": 8676,
      "Hu": 8677,
      "Hy": 8678,
      "Han": 8679,
      "Hour": 8680,
      "Honour": 8681,
      "House": 8682,
      "Hover": 8683,
      "HEY": 8684,
      "Hacket": 8685,
      "Ita": 8686,
      "Iron": 8687,
      "KEL": 8688,
      "Kings": 8689,
      "Kates": 8690,
      "Kiss": 8691,
      "Ly": 8692,
      "Land": 8693,
      "Led": 8694,
      "Loo": 8695,
      "Lad": 8696,
      "Light": 8697,
      "Lim": 8698,
      "Laid": 8699,
      "Lament": 8700,
      "Laugh": 8701,
      "Learn": 8702,
      "Lascivious": 8703,
      "Man": 8704,
      "Mor": 8705,
      "Mir": 8706,
      "Mam": 8707,
      "Mort": 8708,
      "Mop": 8709,
      "Matter": 8710,
      "Maid": 8711,
      "Mount": 8712,
      "New": 8713,
      "Next": 8714,
      "Oly": 8715,
      "PH": 8716,
      "Past": 8717,
      "Pity": 8718,
      "Pass": 8719,
      "Pret": 8720,
      "Pub": 8721,
      "Pitch": 8722,
      "Ran": 8723,
      "Rain": 8724,
      "Rage": 8725,
      "Rem": 8726,
      "RIST": 8727,
      "Sc": 8728,
      "Sk": 8729,
      "Sher": 8730,
      "Sla": 8731,
      "Sum": 8732,
      "Sure": 8733,
      "Sith": 8734,
      "Stoo": 8735,
      "Spl": 8736,
      "Sim": 8737,
      "Spre": 8738,
      "Spa": 8739,
      "Spur": 8740,
      "Sister": 8741,
      "Scar": 8742,
      "Scur": 8743,
      "Scr": 8744,
      "Scal": 8745,
      "Scro": 8746,
      "Spare": 8747,
      "Sug": 8748,
      "Safe": 8749,
      "Tor": 8750,
      "Tear": 8751,
      "Tast": 8752,
      "Tears": 8753,
      "Tread": 8754,
      "Taking": 8755,
      "Troth": 8756,
      "Twelve": 8757,
      "TIT": 8758,
      "Usur": 8759,
      "Vis": 8760,
      "VEL": 8761,
      "Vince": 8762,
      "VAU": 8763,
      "Vile": 8764,
      "Varri": 8765,
      "Win": 8766,
      "Wat": 8767,
      "Wood": 8768,
      "Wind": 8769,
      "Wear": 8770,
      "Wish": 8771,
      "Wise": 8772,
      "Wond": 8773,
      "Wot": 8774,
      "Wrench": 8775,
      "Words": 8776,
      "aed": 8777,
      "aby": 8778,
      "aper": 8779,
      "aving": 8780,
      "afire": 8781,
      "awaking": 8782,
      "abroach": 8783,
      "auspicious": 8784,
      "bath": 8785,
      "bion": 8786,
      "bars": 8787,
      "bower": 8788,
      "bough": 8789,
      "bull": 8790,
      "bary": 8791,
      "bended": 8792,
      "baked": 8793,
      "bunch": 8794,
      "blos": 8795,
      "coo": 8796,
      "ctr": 8797,
      "chea": 8798,
      "cass": 8799,
      "cleave": 8800,
      "core": 8801,
      "ccess": 8802,
      "couch": 8803,
      "cities": 8804,
      "ctable": 8805,
      "cado": 8806,
      "dent": 8807,
      "dul": 8808,
      "dive": 8809,
      "daf": 8810,
      "doff": 8811,
      "dough": 8812,
      "dates": 8813,
      "dles": 8814,
      "dils": 8815,
      "dally": 8816,
      "dpiece": 8817,
      "dump": 8818,
      "darts": 8819,
      "dirt": 8820,
      "dumps": 8821,
      "ean": 8822,
      "ece": 8823,
      "easter": 8824,
      "eats": 8825,
      "epest": 8826,
      "eaves": 8827,
      "elected": 8828,
      "fu": 8829,
      "fou": 8830,
      "fre": 8831,
      "fay": 8832,
      "flo": 8833,
      "fust": 8834,
      "fry": 8835,
      "flaw": 8836,
      "fined": 8837,
      "fuel": 8838,
      "furious": 8839,
      "faded": 8840,
      "flocks": 8841,
      "frequ": 8842,
      "fount": 8843,
      "gno": 8844,
      "gli": 8845,
      "gun": 8846,
      "gess": 8847,
      "gance": 8848,
      "ghast": 8849,
      "glit": 8850,
      "gnat": 8851,
      "gery": 8852,
      "gger": 8853,
      "gging": 8854,
      "gments": 8855,
      "glean": 8856,
      "gilly": 8857,
      "gnable": 8858,
      "hin": 8859,
      "hon": 8860,
      "hent": 8861,
      "ip": 8862,
      "iv": 8863,
      "ili": 8864,
      "iable": 8865,
      "ivy": 8866,
      "ivity": 8867,
      "ja": 8868,
      "jor": 8869,
      "jay": 8870,
      "jars": 8871,
      "jury": 8872,
      "jurious": 8873,
      "jades": 8874,
      "lu": 8875,
      "lat": 8876,
      "lure": 8877,
      "lars": 8878,
      "lings": 8879,
      "latter": 8880,
      "lances": 8881,
      "lump": 8882,
      "mun": 8883,
      "mple": 8884,
      "mson": 8885,
      "mits": 8886,
      "mended": 8887,
      "mured": 8888,
      "mature": 8889,
      "msey": 8890,
      "muddy": 8891,
      "nard": 8892,
      "nity": 8893,
      "nim": 8894,
      "nation": 8895,
      "nings": 8896,
      "nations": 8897,
      "oil": 8898,
      "oever": 8899,
      "opp": 8900,
      "oked": 8901,
      "pout": 8902,
      "pink": 8903,
      "pith": 8904,
      "pang": 8905,
      "pore": 8906,
      "pins": 8907,
      "ponder": 8908,
      "punk": 8909,
      "pump": 8910,
      "rind": 8911,
      "rang": 8912,
      "rite": 8913,
      "range": 8914,
      "rons": 8915,
      "rounds": 8916,
      "sof": 8917,
      "sci": 8918,
      "squar": 8919,
      "smock": 8920,
      "sways": 8921,
      "swarm": 8922,
      "squire": 8923,
      "swan": 8924,
      "sisting": 8925,
      "tar": 8926,
      "tart": 8927,
      "tant": 8928,
      "tche": 8929,
      "tough": 8930,
      "tore": 8931,
      "tush": 8932,
      "tua": 8933,
      "taming": 8934,
      "tpan": 8935,
      "tuned": 8936,
      "uca": 8937,
      "uities": 8938,
      "ucas": 8939,
      "vall": 8940,
      "vors": 8941,
      "vitor": 8942,
      "vanta": 8943,
      "wers": 8944,
      "waf": 8945,
      "whelp": 8946,
      "wning": 8947,
      "waded": 8948,
      "xy": 8949,
      "xor": 8950,
      "yers": 8951,
      "zie": 8952,
      "zalo": 8953,
      "tha": 8954,
      "thar": 8955,
      "thic": 8956,
      "thigh": 8957,
      "thaw": 8958,
      "thimble": 8959,
      "outr": 8960,
      "erd": 8961,
      "err": 8962,
      "eral": 8963,
      "erman": 8964,
      "erness": 8965,
      "erbear": 8966,
      "erpast": 8967,
      "erween": 8968,
      "erick": 8969,
      "ercharged": 8970,
      "ershades": 8971,
      "erpillars": 8972,
      "inc": 8973,
      "inn": 8974,
      "init": 8975,
      "inal": 8976,
      "infe": 8977,
      "inct": 8978,
      "infi": 8979,
      "inches": 8980,
      "inside": 8981,
      "inforced": 8982,
      "inhuman": 8983,
      "invest": 8984,
      "inkest": 8985,
      "inquired": 8986,
      "index": 8987,
      "incaged": 8988,
      "infallible": 8989,
      "incorpor": 8990,
      "anched": 8991,
      "orb": 8992,
      "oro": 8993,
      "orison": 8994,
      "orange": 8995,
      "orged": 8996,
      "orators": 8997,
      "oratory": 8998,
      "ism": 8999,
      "ists": 9000,
      "isans": 9001,
      "issuing": 9002,
      "eno": 9003,
      "enious": 9004,
      "ensign": 9005,
      "ensible": 9006,
      "encompass": 9007,
      "ensuing": 9008,
      "encamp": 9009,
      "encounters": 9010,
      "enzie": 9011,
      "arro": 9012,
      "arith": 9013,
      "argu": 9014,
      "arling": 9015,
      "argues": 9016,
      "argued": 9017,
      "atrice": 9018,
      "atiate": 9019,
      "oni": 9020,
      "stit": 9021,
      "stal": 9022,
      "stif": 9023,
      "station": 9024,
      "stings": 9025,
      "stake": 9026,
      "states": 9027,
      "stair": 9028,
      "stony": 9029,
      "stinted": 9030,
      "stumbling": 9031,
      "stables": 9032,
      "stoned": 9033,
      "stacles": 9034,
      "staves": 9035,
      "llist": 9036,
      "meas": 9037,
      "methoughts": 9038,
      "meats": 9039,
      "metic": 9040,
      "meek": 9041,
      "tot": 9042,
      "toly": 9043,
      "toise": 9044,
      "topping": 9045,
      "tossed": 9046,
      "anda": 9047,
      "andalous": 9048,
      "hew": 9049,
      "heath": 9050,
      "hewn": 9051,
      "heated": 9052,
      "heaved": 9053,
      "ese": 9054,
      "novice": 9055,
      "nobody": 9056,
      "noisome": 9057,
      "sect": 9058,
      "seque": 9059,
      "secut": 9060,
      "seats": 9061,
      "seeds": 9062,
      "hay": 9063,
      "hack": 9064,
      "haunts": 9065,
      "habi": 9066,
      "hapless": 9067,
      "haggard": 9068,
      "rec": 9069,
      "reth": 9070,
      "reli": 9071,
      "reel": 9072,
      "repl": 9073,
      "reco": 9074,
      "reins": 9075,
      "recomfort": 9076,
      "revers": 9077,
      "refer": 9078,
      "recount": 9079,
      "refresh": 9080,
      "remn": 9081,
      "retail": 9082,
      "relig": 9083,
      "recreation": 9084,
      "revoke": 9085,
      "repreh": 9086,
      "ofold": 9087,
      "vein": 9088,
      "vels": 9089,
      "itle": 9090,
      "ingrat": 9091,
      "ingenious": 9092,
      "beit": 9093,
      "beam": 9094,
      "betake": 9095,
      "beda": 9096,
      "befell": 9097,
      "beheaded": 9098,
      "leaf": 9099,
      "leash": 9100,
      "lechery": 9101,
      "lethar": 9102,
      "wive": 9103,
      "hides": 9104,
      "hilt": 9105,
      "hips": 9106,
      "hidden": 9107,
      "owed": 9108,
      "owest": 9109,
      "owls": 9110,
      "cester": 9111,
      "ceives": 9112,
      "cepts": 9113,
      "fork": 9114,
      "forsa": 9115,
      "forged": 9116,
      "forges": 9117,
      "forswore": 9118,
      "forfeits": 9119,
      "forfend": 9120,
      "assay": 9121,
      "asunder": 9122,
      "assed": 9123,
      "asury": 9124,
      "ascend": 9125,
      "chin": 9126,
      "chur": 9127,
      "chants": 9128,
      "chbishop": 9129,
      "chattering": 9130,
      "erel": 9131,
      "ereth": 9132,
      "ldst": 9133,
      "iry": 9134,
      "utt": 9135,
      "utish": 9136,
      "utters": 9137,
      "uttered": 9138,
      "roe": 9139,
      "robe": 9140,
      "notable": 9141,
      "lime": 9142,
      "lict": 9143,
      "libr": 9144,
      "lids": 9145,
      "limed": 9146,
      "lical": 9147,
      "liments": 9148,
      "deb": 9149,
      "deity": 9150,
      "deign": 9151,
      "detain": 9152,
      "decess": 9153,
      "dels": 9154,
      "demes": 9155,
      "defaced": 9156,
      "deposing": 9157,
      "debate": 9158,
      "defiance": 9159,
      "wean": 9160,
      "weeks": 9161,
      "hates": 9162,
      "hating": 9163,
      "withholds": 9164,
      "ented": 9165,
      "entation": 9166,
      "entail": 9167,
      "hiss": 9168,
      "rides": 9169,
      "rider": 9170,
      "rift": 9171,
      "ribs": 9172,
      "ripest": 9173,
      "riot": 9174,
      "adds": 9175,
      "adition": 9176,
      "admon": 9177,
      "admits": 9178,
      "etry": 9179,
      "urer": 9180,
      "ural": 9181,
      "urrection": 9182,
      "user": 9183,
      "ushed": 9184,
      "sops": 9185,
      "rab": 9186,
      "rase": 9187,
      "raught": 9188,
      "rakes": 9189,
      "rags": 9190,
      "razed": 9191,
      "raising": 9192,
      "orders": 9193,
      "ordered": 9194,
      "dole": 9195,
      "doers": 9196,
      "doting": 9197,
      "dotard": 9198,
      "doctors": 9199,
      "doctr": 9200,
      "unro": 9201,
      "unking": 9202,
      "unspeak": 9203,
      "uncrown": 9204,
      "unkind": 9205,
      "unted": 9206,
      "unable": 9207,
      "unpeople": 9208,
      "ungracious": 9209,
      "unwise": 9210,
      "unstain": 9211,
      "unrever": 9212,
      "unquiet": 9213,
      "ungovern": 9214,
      "unconstant": 9215,
      "unprepared": 9216,
      "unsway": 9217,
      "untaught": 9218,
      "unadvised": 9219,
      "unwillingly": 9220,
      "unwholesome": 9221,
      "unlikely": 9222,
      "unfelt": 9223,
      "unsettled": 9224,
      "untainted": 9225,
      "unknit": 9226,
      "unpitied": 9227,
      "unfortunate": 9228,
      "unparallel": 9229,
      "untingly": 9230,
      "ungrateful": 9231,
      "unhallow": 9232,
      "unwonted": 9233,
      "unskil": 9234,
      "unsuspected": 9235,
      "unthankfulness": 9236,
      "unbruised": 9237,
      "unwieldy": 9238,
      "hose": 9239,
      "holes": 9240,
      "mam": 9241,
      "maw": 9242,
      "mament": 9243,
      "macy": 9244,
      "magn": 9245,
      "macul": 9246,
      "peth": 9247,
      "pelt": 9248,
      "pective": 9249,
      "lop": 9250,
      "lope": 9251,
      "losing": 9252,
      "logs": 9253,
      "logy": 9254,
      "lolling": 9255,
      "logic": 9256,
      "logger": 9257,
      "hereof": 9258,
      "heretic": 9259,
      "iding": 9260,
      "verily": 9261,
      "veriest": 9262,
      "verified": 9263,
      "fade": 9264,
      "faster": 9265,
      "famed": 9266,
      "onely": 9267,
      "oneous": 9268,
      "mann": 9269,
      "manors": 9270,
      "mansion": 9271,
      "tip": 9272,
      "tithe": 9273,
      "tile": 9274,
      "tiers": 9275,
      "tiful": 9276,
      "timer": 9277,
      "tigers": 9278,
      "timorous": 9279,
      "Thee": 9280,
      "shaft": 9281,
      "shaken": 9282,
      "amour": 9283,
      "amine": 9284,
      "ample": 9285,
      "ampt": 9286,
      "ambling": 9287,
      "willow": 9288,
      "neth": 9289,
      "necks": 9290,
      "nels": 9291,
      "nephe": 9292,
      "geth": 9293,
      "geon": 9294,
      "geese": 9295,
      "sums": 9296,
      "sustain": 9297,
      "tern": 9298,
      "conn": 9299,
      "conceived": 9300,
      "contains": 9301,
      "contag": 9302,
      "convenient": 9303,
      "conspire": 9304,
      "construe": 9305,
      "prone": 9306,
      "prud": 9307,
      "pratest": 9308,
      "prank": 9309,
      "proro": 9310,
      "prenzie": 9311,
      "Threw": 9312,
      "Thinkest": 9313,
      "ending": 9314,
      "enders": 9315,
      "endless": 9316,
      "bya": 9317,
      "ominable": 9318,
      "labours": 9319,
      "morant": 9320,
      "moralize": 9321,
      "upholds": 9322,
      "upturned": 9323,
      "uphin": 9324,
      "shy": 9325,
      "shoo": 9326,
      "shrun": 9327,
      "shoot": 9328,
      "podes": 9329,
      "poise": 9330,
      "poten": 9331,
      "polit": 9332,
      "pocr": 9333,
      "poets": 9334,
      "popul": 9335,
      "poetry": 9336,
      "tast": 9337,
      "tape": 9338,
      "tage": 9339,
      "taff": 9340,
      "tables": 9341,
      "tabour": 9342,
      "tails": 9343,
      "tackle": 9344,
      "mocks": 9345,
      "motive": 9346,
      "tection": 9347,
      "text": 9348,
      "ifs": 9349,
      "ills": 9350,
      "illius": 9351,
      "inexor": 9352,
      "aths": 9353,
      "blemis": 9354,
      "bleared": 9355,
      "kingdoms": 9356,
      "Whatever": 9357,
      "washed": 9358,
      "bod": 9359,
      "boat": 9360,
      "boss": 9361,
      "bodied": 9362,
      "boatswain": 9363,
      "iless": 9364,
      "ilities": 9365,
      "anting": 9366,
      "venuto": 9367,
      "sheer": 9368,
      "sheath": 9369,
      "cakes": 9370,
      "cavil": 9371,
      "causer": 9372,
      "bler": 9373,
      "blench": 9374,
      "blushes": 9375,
      "blank": 9376,
      "blanks": 9377,
      "moreland": 9378,
      "Force": 9379,
      "Forward": 9380,
      "Forget": 9381,
      "Forswear": 9382,
      "Forced": 9383,
      "saves": 9384,
      "saving": 9385,
      "sacre": 9386,
      "savours": 9387,
      "inder": 9388,
      "indust": 9389,
      "indign": 9390,
      "induction": 9391,
      "indict": 9392,
      "induced": 9393,
      "therea": 9394,
      "thereon": 9395,
      "therewithal": 9396,
      "working": 9397,
      "loveth": 9398,
      "lovelier": 9399,
      "canor": 9400,
      "canon": 9401,
      "cancell": 9402,
      "cannon": 9403,
      "cannibal": 9404,
      "pertain": 9405,
      "perfid": 9406,
      "perfume": 9407,
      "performed": 9408,
      "pertinent": 9409,
      "perfu": 9410,
      "perceives": 9411,
      "ctures": 9412,
      "outside": 9413,
      "letting": 9414,
      "dial": 9415,
      "digg": 9416,
      "digress": 9417,
[...]
